{
  "\u0000": 0,
  "\u0001": 1,
  "\u0002": 2,
  "\u0003": 3,
  "\u0004": 4,
  "\u0005": 5,
  "\u0006": 6,
  "\u0007": 7,
  "\b": 8,
  "\t": 9,
  "\n": 10,
  "\u000b": 11,
  "\f": 12,
  "\r": 13,
  "\u000e": 14,
  "\u000f": 15,
  "\u0010": 16,
  "\u0011": 17,
  "\u0012": 18,
  "\u0013": 19,
  "\u0014": 20,
  "\u0015": 21,
  "\u0016": 22,
  "\u0017": 23,
  "\u0018": 24,
  "\u0019": 25,
  "\u001a": 26,
  "\u001b": 27,
  "\u001c": 28,
  "\u001d": 29,
  "\u001e": 30,
  "\u001f": 31,
  " ": 32,
  "!": 33,
  "\"": 34,
  "#": 35,
  "$": 36,
  "%": 37,
  "&": 38,
  "'": 39,
  "(": 40,
  ")": 41,
  "*": 42,
  "+": 43,
  ",": 44,
  "-": 45,
  ".": 46,
  "/": 47,
  "0": 48,
  "1": 49,
  "2": 50,
  "3": 51,
  "4": 52,
  "5": 53,
  "6": 54,
  "7": 55,
  "8": 56,
  "9": 57,
  ":": 58,
  ";": 59,
  "<": 60,
  "=": 61,
  ">": 62,
  "?": 63,
  "@": 64,
  "A": 65,
  "B": 66,
  "C": 67,
  "D": 68,
  "E": 69,
  "F": 70,
  "G": 71,
  "H": 72,
  "I": 73,
  "J": 74,
  "K": 75,
  "L": 76,
  "M": 77,
  "N": 78,
  "O": 79,
  "P": 80,
  "Q": 81,
  "R": 82,
  "S": 83,
  "T": 84,
  "U": 85,
  "V": 86,
  "W": 87,
  "X": 88,
  "Y": 89,
  "Z": 90,
  "[": 91,
  "\\": 92,
  "]": 93,
  "^": 94,
  "_": 95,
  "`": 96,
  "a": 97,
  "b": 98,
  "c": 99,
  "d": 100,
  "e": 101,
  "f": 102,
  "g": 103,
  "h": 104,
  "i": 105,
  "j": 106,
  "k": 107,
  "l": 108,
  "m": 109,
  "n": 110,
  "o": 111,
  "p": 112,
  "q": 113,
  "r": 114,
  "s": 115,
  "t": 116,
  "u": 117,
  "v": 118,
  "w": 119,
  "x": 120,
  "y": 121,
  "z": 122,
  "{": 123,
  "|": 124,
  "}": 125,
  "~": 126,
  "": 127,
  "": 128,
  "": 129,
  "": 130,
  "": 131,
  "": 132,
  "": 133,
  "": 134,
  "": 135,
  "": 136,
  "": 137,
  "": 138,
  "": 139,
  "": 140,
  "": 141,
  "": 142,
  "": 143,
  "": 144,
  "": 145,
  "": 146,
  "": 147,
  "": 148,
  "": 149,
  "": 150,
  "": 151,
  "": 152,
  "": 153,
  "": 154,
  "": 155,
  "": 156,
  "": 157,
  "": 158,
  "": 159,
  " ": 160,
  "¡": 161,
  "¢": 162,
  "£": 163,
  "¤": 164,
  "¥": 165,
  "¦": 166,
  "§": 167,
  "¨": 168,
  "©": 169,
  "ª": 170,
  "«": 171,
  "¬": 172,
  "­": 173,
  "®": 174,
  "¯": 175,
  "°": 176,
  "±": 177,
  "²": 178,
  "³": 179,
  "´": 180,
  "µ": 181,
  "¶": 182,
  "·": 183,
  "¸": 184,
  "¹": 185,
  "º": 186,
  "»": 187,
  "¼": 188,
  "½": 189,
  "¾": 190,
  "¿": 191,
  "À": 192,
  "Á": 193,
  "Â": 194,
  "Ã": 195,
  "Ä": 196,
  "Å": 197,
  "Æ": 198,
  "Ç": 199,
  "È": 200,
  "É": 201,
  "Ê": 202,
  "Ë": 203,
  "Ì": 204,
  "Í": 205,
  "Î": 206,
  "Ï": 207,
  "Ð": 208,
  "Ñ": 209,
  "Ò": 210,
  "Ó": 211,
  "Ô": 212,
  "Õ": 213,
  "Ö": 214,
  "×": 215,
  "Ø": 216,
  "Ù": 217,
  "Ú": 218,
  "Û": 219,
  "Ü": 220,
  "Ý": 221,
  "Þ": 222,
  "ß": 223,
  "à": 224,
  "á": 225,
  "â": 226,
  "ã": 227,
  "ä": 228,
  "å": 229,
  "æ": 230,
  "ç": 231,
  "è": 232,
  "é": 233,
  "ê": 234,
  "ë": 235,
  "ì": 236,
  "í": 237,
  "î": 238,
  "ï": 239,
  "ð": 240,
  "ñ": 241,
  "ò": 242,
  "ó": 243,
  "ô": 244,
  "õ": 245,
  "ö": 246,
  "÷": 247,
  "ø": 248,
  "ù": 249,
  "ú": 250,
  "û": 251,
  "ü": 252,
  "ý": 253,
  "þ": 254,
  "ÿ": 255,
  "<|endoftext|>": 256,
  "he": 257,
  " t": 258,
  " a": 259,
  " s": 260,
  " w": 261,
  "nd": 262,
  " the": 263,
  "ed": 264,
  " b": 265,
  " to": 266,
  " and": 267,
  " h": 268,
  " f": 269,
  "in": 270,
  " wa": 271,
  " T": 272,
  "it": 273,
  "re": 274,
  "ou": 275,
  " l": 276,
  " d": 277,
  " c": 278,
  " p": 279,
  "ay": 280,
  " was": 281,
  "er": 282,
  " m": 283,
  "om": 284,
  " he": 285,
  " The": 286,
  "is": 287,
  " n": 288,
  "on": 289,
  "ar": 290,
  "im": 291,
  " sa": 292,
  "ll": 293,
  "id": 294,
  " ha": 295,
  " g": 296,
  " S": 297,
  "at": 298,
  "ing": 299,
  "ot": 300,
  "en": 301,
  "an": 302,
  "le": 303,
  "or": 304,
  "ir": 305,
  " H": 306,
  "am": 307,
  "et": 308,
  " it": 309,
  " th": 310,
  "ig": 311,
  " They": 312,
  "il": 313,
  " in": 314,
  " He": 315,
  " pl": 316,
  " \"": 317,
  "ow": 318,
  "ver": 319,
  "ri": 320,
  " u": 321,
  "ut": 322,
  " day": 323,
  " said": 324,
  "ith": 325,
  "pp": 326,
  " play": 327,
  " be": 328,
  "On": 329,
  " with": 330,
  " o": 331,
  " y": 332,
  " her": 333,
  " r": 334,
  "oo": 335,
  "ked": 336,
  "ce": 337,
  " his": 338,
  " She": 339,
  " I": 340,
  "ld": 341,
  " st": 342,
  " Tim": 343,
  "ke": 344,
  " e": 345,
  "nt": 346,
  "ck": 347,
  " big": 348,
  "very": 349,
  " you": 350,
  "ve": 351,
  "st": 352,
  " happ": 353,
  " on": 354,
  "end": 355,
  "un": 356,
  "all": 357,
  "ily": 358,
  "riend": 359,
  " friend": 360,
  " L": 361,
  " up": 362,
  " they": 363,
  " want": 364,
  " we": 365,
  " had": 366,
  " not": 367,
  "her": 368,
  " li": 369,
  "itt": 370,
  " do": 371,
  " of": 372,
  " B": 373,
  "ad": 374,
  "es": 375,
  " happy": 376,
  " M": 377,
  "ent": 378,
  " very": 379,
  " that": 380,
  "One": 381,
  " saw": 382,
  " mom": 383,
  "ould": 384,
  "'s": 385,
  "se": 386,
  " for": 387,
  "ittle": 388,
  " little": 389,
  " so": 390,
  " she": 391,
  " sh": 392,
  "ime": 393,
  " k": 394,
  " time": 395,
  " ne": 396,
  " nam": 397,
  "ch": 398,
  " there": 399,
  ".\"": 400,
  "ound": 401,
  " bo": 402,
  " named": 403,
  " Lily": 404,
  "ird": 405,
  " sm": 406,
  " wanted": 407,
  " bird": 408,
  " Tom": 409,
  "ved": 410,
  " were": 411,
  " but": 412,
  "The": 413,
  " friends": 414,
  "!\"": 415,
  "out": 416,
  "ht": 417,
  "el": 418,
  "ake": 419,
  "al": 420,
  " an": 421,
  " too": 422,
  "ide": 423,
  " hel": 424,
  "Once": 425,
  " wh": 426,
  " help": 427,
  "ug": 428,
  "ome": 429,
  " went": 430,
  " all": 431,
  " It": 432,
  " A": 433,
  " loo": 434,
  " is": 435,
  " upon": 436,
  " lo": 437,
  "ue": 438,
  "ter": 439,
  "ry": 440,
  "ore": 441,
  "ind": 442,
  "get": 443,
  " fun": 444,
  " toy": 445,
  "ill": 446,
  "ack": 447,
  "gether": 448,
  " at": 449,
  " j": 450,
  " as": 451,
  " did": 452,
  "ame": 453,
  " re": 454,
  " together": 455,
  "ur": 456,
  " cat": 457,
  "ra": 458,
  " dog": 459,
  " se": 460,
  "ly": 461,
  " tre": 462,
  "ood": 463,
  " gir": 464,
  " can": 465,
  "ic": 466,
  " ball": 467,
  "my": 468,
  " girl": 469,
  " could": 470,
  "ard": 471,
  "ted": 472,
  " him": 473,
  " their": 474,
  "ec": 475,
  "ark": 476,
  " ro": 477,
  "way": 478,
  " kn": 479,
  " played": 480,
  "?\"": 481,
  "hed": 482,
  " fr": 483,
  "ain": 484,
  "hen": 485,
  " le": 486,
  " out": 487,
  "um": 488,
  "'t": 489,
  "ax": 490,
  " go": 491,
  " them": 492,
  " are": 493,
  " boy": 494,
  " sad": 495,
  "ul": 496,
  "oug": 497,
  " have": 498,
  " tree": 499,
  " cl": 500,
  " loved": 501,
  "other": 502,
  " back": 503,
  " looked": 504,
  " sp": 505,
  " found": 506,
  "own": 507,
  "one": 508,
  " Max": 509,
  " me": 510,
  " sc": 511,
  " man": 512,
  "are": 513,
  " star": 514,
  " Sue": 515,
  "hing": 516,
  "side": 517,
  " park": 518,
  "ong": 519,
  "op": 520,
  "ful": 521,
  " bec": 522,
  " like": 523,
  " would": 524,
  " liked": 525,
  "elt": 526,
  "round": 527,
  " One": 528,
  " felt": 529,
  "ight": 530,
  " fa": 531,
  " Ben": 532,
  " la": 533,
  " W": 534,
  "ell": 535,
  " make": 536,
  " But": 537,
  "You": 538,
  " asked": 539,
  " new": 540,
  "ice": 541,
  "iled": 542,
  "ss": 543,
  "ared": 544,
  "ag": 545,
  " Sam": 546,
  "ought": 547,
  " see": 548,
  "omet": 549,
  " al": 550,
  " started": 551,
  " ag": 552,
  " came": 553,
  " no": 554,
  " smiled": 555,
  " car": 556,
  " other": 557,
  "ried": 558,
  " somet": 559,
  " good": 560,
  " say": 561,
  " br": 562,
  " small": 563,
  "ade": 564,
  "pot": 565,
  "ob": 566,
  "ings": 567,
  " wor": 568,
  " away": 569,
  "ab": 570,
  "ouse": 571,
  " find": 572,
  "us": 573,
  " ex": 574,
  " from": 575,
  " put": 576,
  "ty": 577,
  " thought": 578,
  " what": 579,
  " made": 580,
  "ened": 581,
  " playing": 582,
  "ie": 583,
  " home": 584,
  "king": 585,
  " wal": 586,
  "ach": 587,
  " something": 588,
  "ia": 589,
  "ile": 590,
  " every": 591,
  " ran": 592,
  " Spot": 593,
  " again": 594,
  " F": 595,
  " co": 596,
  "ave": 597,
  "uc": 598,
  "arn": 599,
  " box": 600,
  " down": 601,
  "dd": 602,
  " toys": 603,
  "ook": 604,
  " J": 605,
  " pr": 606,
  " took": 607,
  " sw": 608,
  " some": 609,
  "if": 610,
  " laug": 611,
  "oud": 612,
  "ust": 613,
  "ew": 614,
  " sun": 615,
  " around": 616,
  "ny": 617,
  " scared": 618,
  " lived": 619,
  " learn": 620,
  " will": 621,
  " my": 622,
  " fl": 623,
  "ure": 624,
  " your": 625,
  "ick": 626,
  "ret": 627,
  "ep": 628,
  " house": 629,
  " when": 630,
  " You": 631,
  " things": 632,
  " bl": 633,
  ",\"": 634,
  "ank": 635,
  "uck": 636,
  " then": 637,
  "pped": 638,
  " Mia": 639,
  "ist": 640,
  "Th": 641,
  " bot": 642,
  " ab": 643,
  "ish": 644,
  " who": 645,
  " get": 646,
  " know": 647,
  "ucy": 648,
  " fe": 649,
  "as": 650,
  " tried": 651,
  " got": 652,
  " knew": 653,
  "ited": 654,
  " lot": 655,
  "uch": 656,
  " says": 657,
  "ally": 658,
  "ap": 659,
  " int": 660,
  " ch": 661,
  "ive": 662,
  " red": 663,
  "Tim": 664,
  "nder": 665,
  "ump": 666,
  "Lily": 667,
  " pret": 668,
  "ous": 669,
  " about": 670,
  " care": 671,
  "fter": 672,
  " dec": 673,
  " So": 674,
  " op": 675,
  "fe": 676,
  " look": 677,
  " D": 678,
  " many": 679,
  "use": 680,
  " un": 681,
  " more": 682,
  "ise": 683,
  "ways": 684,
  " E": 685,
  "nn": 686,
  " exc": 687,
  " Mom": 688,
  " always": 689,
  " pic": 690,
  " po": 691,
  "â": 692,
  " best": 693,
  "qu": 694,
  " any": 695,
  " show": 696,
  " both": 697,
  " Lucy": 698,
  "ite": 699,
  " room": 700,
  " hug": 701,
  "ace": 702,
  "ers": 703,
  "ause": 704,
  " into": 705,
  " water": 706,
  " became": 707,
  " outside": 708,
  " learned": 709,
  " laughed": 710,
  "udd": 711,
  " dad": 712,
  "ided": 713,
  "ant": 714,
  " because": 715,
  " one": 716,
  " gre": 717,
  " pe": 718,
  " decided": 719,
  " And": 720,
  "pr": 721,
  " excited": 722,
  " v": 723,
  "Yes": 724,
  " nice": 725,
  " ho": 726,
  "nna": 727,
  " ke": 728,
  " eat": 729,
  " sor": 730,
  " this": 731,
  "ara": 732,
  " jump": 733,
  " long": 734,
  " feel": 735,
  "They": 736,
  " Bob": 737,
  "Tom": 738,
  " mo": 739,
  " told": 740,
  " run": 741,
  "ull": 742,
  "ink": 743,
  " sur": 744,
  " rock": 745,
  " inside": 746,
  " pretty": 747,
  " sl": 748,
  " sk": 749,
  "lew": 750,
  "iny": 751,
  " take": 752,
  " am": 753,
  " gave": 754,
  " surpr": 755,
  " fast": 756,
  " each": 757,
  " tow": 758,
  "our": 759,
  "ess": 760,
  "ro": 761,
  "ven": 762,
  "ged": 763,
  " sorry": 764,
  " need": 765,
  " or": 766,
  " much": 767,
  " than": 768,
  "urt": 769,
  " how": 770,
  "ised": 771,
  " str": 772,
  "able": 773,
  " under": 774,
  "Wh": 775,
  "og": 776,
  "ge": 777,
  " kind": 778,
  "and": 779,
  " gra": 780,
  " Amy": 781,
  "imal": 782,
  "ving": 783,
  " animal": 784,
  "ft": 785,
  " ta": 786,
  "But": 787,
  " food": 788,
  "etter": 789,
  "Can": 790,
  " walked": 791,
  " We": 792,
  " tr": 793,
  " wat": 794,
  " hand": 795,
  " old": 796,
  " His": 797,
  " list": 798,
  " hig": 799,
  "ff": 800,
  " just": 801,
  " clo": 802,
  " flow": 803,
  " en": 804,
  "rom": 805,
  " cle": 806,
  "ched": 807,
  " didn": 808,
  "urn": 809,
  " ide": 810,
  "eci": 811,
  "Mom": 812,
  "ase": 813,
  " try": 814,
  " idea": 815,
  " dan": 816,
  "ion": 817,
  "here": 818,
  " sky": 819,
  " its": 820,
  "ecial": 821,
  " special": 822,
  " near": 823,
  " flew": 824,
  " us": 825,
  " Anna": 826,
  " tw": 827,
  " happened": 828,
  "pl": 829,
  "gry": 830,
  " fo": 831,
  "ine": 832,
  " fi": 833,
  " sn": 834,
  " Th": 835,
  "Thank": 836,
  " if": 837,
  " cake": 838,
  "ber": 839,
  " fish": 840,
  " animals": 841,
  " stor": 842,
  " over": 843,
  " bug": 844,
  "lf": 845,
  " heard": 846,
  "ate": 847,
  " careful": 848,
  "ex": 849,
  " com": 850,
  "udden": 851,
  "rm": 852,
  " better": 853,
  " lots": 854,
  " by": 855,
  " let": 856,
  " hard": 857,
  " wind": 858,
  " never": 859,
  " hurt": 860,
  " bear": 861,
  " share": 862,
  "ople": 863,
  " Every": 864,
  " dre": 865,
  "uddenly": 866,
  "more": 867,
  " anymore": 868,
  " even": 869,
  " te": 870,
  "ort": 871,
  " tal": 872,
  "pec": 873,
  " fly": 874,
  " Sara": 875,
  " safe": 876,
  " love": 877,
  "ady": 878,
  " bu": 879,
  " end": 880,
  " don": 881,
  " K": 882,
  " fore": 883,
  "\n\n": 884,
  " give": 885,
  " people": 886,
  " after": 887,
  " clean": 888,
  "uff": 889,
  " proud": 890,
  " opened": 891,
  "bed": 892,
  "'m": 893,
  " high": 894,
  " gr": 895,
  " fam": 896,
  " bad": 897,
  " door": 898,
  " surprised": 899,
  " Then": 900,
  "itty": 901,
  "ak": 902,
  " turn": 903,
  "As": 904,
  " gl": 905,
  "age": 906,
  " From": 907,
  "ummy": 908,
  "ough": 909,
  " ground": 910,
  " clim": 911,
  " Her": 912,
  " thanked": 913,
  " im": 914,
  " When": 915,
  "iz": 916,
  " blue": 917,
  " call": 918,
  " book": 919,
  "kay": 920,
  "arden": 921,
  " garden": 922,
  "ild": 923,
  " far": 924,
  " ma": 925,
  " ever": 926,
  " way": 927,
  "pected": 928,
  " hugged": 929,
  " che": 930,
  " shiny": 931,
  " col": 932,
  " picked": 933,
  "Let": 934,
  " smile": 935,
  " mag": 936,
  " loud": 937,
  " cu": 938,
  " off": 939,
  " should": 940,
  " come": 941,
  " In": 942,
  "expected": 943,
  " unexpected": 944,
  "xt": 945,
  " next": 946,
  " stick": 947,
  " place": 948,
  " walk": 949,
  " N": 950,
  "ture": 951,
  " family": 952,
  "hes": 953,
  "em": 954,
  " qu": 955,
  " color": 956,
  "by": 957,
  " P": 958,
  " still": 959,
  "ip": 960,
  " unt": 961,
  " strong": 962,
  " great": 963,
  " boat": 964,
  " app": 965,
  "les": 966,
  " hat": 967,
  "oy": 968,
  " happily": 969,
  " bro": 970,
  "ool": 971,
  " until": 972,
  " jumped": 973,
  " town": 974,
  " ca": 975,
  " frog": 976,
  "dy": 977,
  " kid": 978,
  " helped": 979,
  " Sally": 980,
  " forest": 981,
  "ies": 982,
  " sto": 983,
  "orn": 984,
  "ct": 985,
  " doll": 986,
  "aut": 987,
  " squ": 988,
  "ary": 989,
  " Kitty": 990,
  " beaut": 991,
  " listen": 992,
  " showed": 993,
  " met": 994,
  " now": 995,
  "No": 996,
  "uffy": 997,
  " par": 998,
  " magic": 999,
  "oon": 1000,
  "raw": 1001,
  " while": 1002,
  " open": 1003,
  " story": 1004,
  "iful": 1005,
  " rem": 1006,
  " picture": 1007,
  "lease": 1008,
  " beautiful": 1009,
  " bra": 1010,
  "th": 1011,
  "bit": 1012,
  " soft": 1013,
  "He": 1014,
  "abbit": 1015,
  " stay": 1016,
  " couldn": 1017,
  " clos": 1018,
  "ock": 1019,
  " called": 1020,
  "ush": 1021,
  "ane": 1022,
  " yummy": 1023,
  " kids": 1024,
  "pt": 1025,
  "It": 1026,
  " rabbit": 1027,
  " watch": 1028,
  "When": 1029,
  " slide": 1030,
  "luffy": 1031,
  " everyone": 1032,
  " ate": 1033,
  " pa": 1034,
  " being": 1035,
  " warm": 1036,
  " wo": 1037,
  " face": 1038,
  " fin": 1039,
  "illy": 1040,
  " de": 1041,
  " stopped": 1042,
  " ad": 1043,
  "rel": 1044,
  " tra": 1045,
  " thre": 1046,
  " flowers": 1047,
  " soon": 1048,
  " cry": 1049,
  "iss": 1050,
  " two": 1051,
  "vent": 1052,
  "fore": 1053,
  " imp": 1054,
  " angry": 1055,
  " keep": 1056,
  " hear": 1057,
  "unny": 1058,
  "dded": 1059,
  " store": 1060,
  " cre": 1061,
  " fell": 1062,
  "ished": 1063,
  " lost": 1064,
  " leave": 1065,
  "ired": 1066,
  " rain": 1067,
  " Let": 1068,
  "self": 1069,
  " pain": 1070,
  " having": 1071,
  "That": 1072,
  " fix": 1073,
  " cook": 1074,
  " Fluffy": 1075,
  " Wh": 1076,
  "owl": 1077,
  "day": 1078,
  " nodded": 1079,
  " C": 1080,
  "so": 1081,
  "ear": 1082,
  " sat": 1083,
  " brave": 1084,
  " where": 1085,
  "oh": 1086,
  " also": 1087,
  "â": 1088,
  " yell": 1089,
  " mommy": 1090,
  "â": 1091,
  "Ben": 1092,
  " before": 1093,
  "ohn": 1094,
  " game": 1095,
  " sand": 1096,
  " hands": 1097,
  " Now": 1098,
  " tired": 1099,
  "ud": 1100,
  "ger": 1101,
  "irst": 1102,
  " mean": 1103,
  " bre": 1104,
  "gan": 1105,
  "What": 1106,
  " work": 1107,
  "Hi": 1108,
  " use": 1109,
  " noise": 1110,
  " head": 1111,
  "be": 1112,
  " kept": 1113,
  " fav": 1114,
  "Look": 1115,
  " okay": 1116,
  "ble": 1117,
  " pie": 1118,
  " mon": 1119,
  " has": 1120,
  " z": 1121,
  " sing": 1122,
  " real": 1123,
  " green": 1124,
  " ey": 1125,
  " cou": 1126,
  " block": 1127,
  " wait": 1128,
  "irrel": 1129,
  " G": 1130,
  " think": 1131,
  " bed": 1132,
  "ange": 1133,
  "Then": 1134,
  " squirrel": 1135,
  " others": 1136,
  " catch": 1137,
  " R": 1138,
  "ember": 1139,
  " dress": 1140,
  "joy": 1141,
  " sunny": 1142,
  " shared": 1143,
  " funny": 1144,
  " â": 1145,
  "az": 1146,
  " looking": 1147,
  " duck": 1148,
  "itc": 1149,
  " pond": 1150,
  " dr": 1151,
  "ath": 1152,
  " mess": 1153,
  " hole": 1154,
  " bunny": 1155,
  " own": 1156,
  " expl": 1157,
  " beh": 1158,
  "uit": 1159,
  " used": 1160,
  " pull": 1161,
  " thr": 1162,
  "ello": 1163,
  "ect": 1164,
  "Hello": 1165,
  " going": 1166,
  " enjoy": 1167,
  " Mr": 1168,
  " Can": 1169,
  " Do": 1170,
  "oral": 1171,
  "leep": 1172,
  " making": 1173,
  " dif": 1174,
  "itchen": 1175,
  " right": 1176,
  " kitchen": 1177,
  " swing": 1178,
  " favor": 1179,
  "ster": 1180,
  "eet": 1181,
  " worked": 1182,
  " table": 1183,
  " remember": 1184,
  " favorite": 1185,
  " birds": 1186,
  " our": 1187,
  " move": 1188,
  " con": 1189,
  "ng": 1190,
  "ub": 1191,
  " jo": 1192,
  " agre": 1193,
  "ning": 1194,
  " truck": 1195,
  " vo": 1196,
  " eyes": 1197,
  " Jack": 1198,
  " moral": 1199,
  " lady": 1200,
  " curi": 1201,
  "imes": 1202,
  " flo": 1203,
  " cut": 1204,
  "ught": 1205,
  " sound": 1206,
  "thing": 1207,
  "lly": 1208,
  "We": 1209,
  "After": 1210,
  " curious": 1211,
  " yard": 1212,
  " tall": 1213,
  " cla": 1214,
  "ma": 1215,
  "aper": 1216,
  " climb": 1217,
  "que": 1218,
  " import": 1219,
  " first": 1220,
  " ice": 1221,
  " talk": 1222,
  " advent": 1223,
  "ious": 1224,
  " flower": 1225,
  "ila": 1226,
  " ask": 1227,
  " tri": 1228,
  " party": 1229,
  " forg": 1230,
  " bag": 1231,
  " dir": 1232,
  " watched": 1233,
  "ied": 1234,
  "aybe": 1235,
  " important": 1236,
  " blocks": 1237,
  " bab": 1238,
  " This": 1239,
  "led": 1240,
  " does": 1241,
  " here": 1242,
  " top": 1243,
  " grab": 1244,
  " cold": 1245,
  "ting": 1246,
  " tail": 1247,
  " ste": 1248,
  " dis": 1249,
  "ken": 1250,
  " hair": 1251,
  " bel": 1252,
  "ded": 1253,
  "At": 1254,
  " song": 1255,
  " pick": 1256,
  "zy": 1257,
  " yellow": 1258,
  " grass": 1259,
  " draw": 1260,
  "llow": 1261,
  " wr": 1262,
  " agreed": 1263,
  " hill": 1264,
  " sweet": 1265,
  " mouse": 1266,
  " bright": 1267,
  " began": 1268,
  "ign": 1269,
  " hun": 1270,
  " cloud": 1271,
  "fere": 1272,
  " rest": 1273,
  " baby": 1274,
  "af": 1275,
  " night": 1276,
  " Fin": 1277,
  "Don": 1278,
  " tast": 1279,
  " differe": 1280,
  " stop": 1281,
  " walking": 1282,
  "ede": 1283,
  "Wow": 1284,
  "Anna": 1285,
  " voice": 1286,
  " sleep": 1287,
  " Mommy": 1288,
  "ushed": 1289,
  "ient": 1290,
  "ced": 1291,
  " laugh": 1292,
  "Sara": 1293,
  " shar": 1294,
  " hop": 1295,
  " Suddenly": 1296,
  "cked": 1297,
  " touch": 1298,
  "ppy": 1299,
  " hid": 1300,
  " clot": 1301,
  "oom": 1302,
  "ached": 1303,
  " follow": 1304,
  " surprise": 1305,
  " piece": 1306,
  "co": 1307,
  "Max": 1308,
  " please": 1309,
  " feeling": 1310,
  " different": 1311,
  " dance": 1312,
  " another": 1313,
  " leaves": 1314,
  "Why": 1315,
  " prom": 1316,
  " cried": 1317,
  " hungry": 1318,
  " race": 1319,
  " gone": 1320,
  " shout": 1321,
  " needed": 1322,
  "air": 1323,
  " fair": 1324,
  " closer": 1325,
  " bus": 1326,
  "â": 1327,
  " thing": 1328,
  " per": 1329,
  " floor": 1330,
  " farm": 1331,
  " cr": 1332,
  " trees": 1333,
  "isy": 1334,
  "So": 1335,
  " helping": 1336,
  " swim": 1337,
  " hot": 1338,
  " behind": 1339,
  " tell": 1340,
  " read": 1341,
  " listened": 1342,
  " adventure": 1343,
  "Suddenly": 1344,
  " sho": 1345,
  " dark": 1346,
  "bo": 1347,
  " worry": 1348,
  " full": 1349,
  " climbed": 1350,
  "bye": 1351,
  " ac": 1352,
  " As": 1353,
  " ri": 1354,
  "key": 1355,
  "ered": 1356,
  " count": 1357,
  "Sam": 1358,
  " wood": 1359,
  " paper": 1360,
  " That": 1361,
  "av": 1362,
  " tiny": 1363,
  " must": 1364,
  " prin": 1365,
  " friendly": 1366,
  " fire": 1367,
  "ely": 1368,
  "ater": 1369,
  " turned": 1370,
  " sit": 1371,
  " apple": 1372,
  " Dad": 1373,
  " reached": 1374,
  " hold": 1375,
  " broken": 1376,
  " repl": 1377,
  " treat": 1378,
  "where": 1379,
  " pink": 1380,
  " colors": 1381,
  "ging": 1382,
  " smell": 1383,
  " ready": 1384,
  " All": 1385,
  "ash": 1386,
  " sees": 1387,
  " del": 1388,
  " been": 1389,
  " wonder": 1390,
  " roll": 1391,
  "She": 1392,
  " wag": 1393,
  " only": 1394,
  " fight": 1395,
  " window": 1396,
  " fall": 1397,
  " cast": 1398,
  " Everyone": 1399,
  "red": 1400,
  " goodbye": 1401,
  " owl": 1402,
  "iced": 1403,
  "Sue": 1404,
  " trying": 1405,
  " hide": 1406,
  " pushed": 1407,
  " din": 1408,
  " O": 1409,
  " looks": 1410,
  " bit": 1411,
  "ower": 1412,
  "'re": 1413,
  " train": 1414,
  " perf": 1415,
  " moment": 1416,
  " dri": 1417,
  " cream": 1418,
  " cars": 1419,
  "sh": 1420,
  " ar": 1421,
  " wise": 1422,
  " running": 1423,
  " glad": 1424,
  " doing": 1425,
  " slow": 1426,
  " reach": 1427,
  " done": 1428,
  " bar": 1429,
  " wear": 1430,
  " pretend": 1431,
  " less": 1432,
  " wet": 1433,
  " replied": 1434,
  " light": 1435,
  " dream": 1436,
  " stuck": 1437,
  " pu": 1438,
  " pot": 1439,
  " explore": 1440,
  "man": 1441,
  " scary": 1442,
  "ather": 1443,
  "nts": 1444,
  "avy": 1445,
  " name": 1446,
  "In": 1447,
  " close": 1448,
  " balloon": 1449,
  " lion": 1450,
  " Jane": 1451,
  " build": 1452,
  " paint": 1453,
  " nest": 1454,
  " dro": 1455,
  " bott": 1456,
  " amaz": 1457,
  " buy": 1458,
  "andy": 1459,
  " wall": 1460,
  " ra": 1461,
  " cool": 1462,
  " sure": 1463,
  " mum": 1464,
  "ield": 1465,
  "up": 1466,
  " set": 1467,
  " butter": 1468,
  "Oh": 1469,
  " miss": 1470,
  " Timmy": 1471,
  "orm": 1472,
  " broke": 1473,
  " After": 1474,
  "ike": 1475,
  "Mia": 1476,
  "oney": 1477,
  "oe": 1478,
  "atter": 1479,
  " shouted": 1480,
  " sometimes": 1481,
  " fruit": 1482,
  " coming": 1483,
  "Her": 1484,
  " threw": 1485,
  " swam": 1486,
  " snow": 1487,
  " clapped": 1488,
  " air": 1489,
  "ized": 1490,
  " job": 1491,
  " cont": 1492,
  " Bobo": 1493,
  "uddy": 1494,
  "ames": 1495,
  "aisy": 1496,
  " underst": 1497,
  " turns": 1498,
  " thank": 1499,
  " blew": 1500,
  "outh": 1501,
  " spl": 1502,
  " remembered": 1503,
  " mouth": 1504,
  " heavy": 1505,
  "art": 1506,
  " land": 1507,
  " dirty": 1508,
  "der": 1509,
  "ask": 1510,
  " grabbed": 1511,
  " books": 1512,
  "ucky": 1513,
  "ation": 1514,
  " left": 1515,
  " John": 1516,
  "ndma": 1517,
  " through": 1518,
  " join": 1519,
  " Lila": 1520,
  " pulled": 1521,
  " noticed": 1522,
  " fox": 1523,
  "room": 1524,
  "olly": 1525,
  "gg": 1526,
  " plan": 1527,
  " pen": 1528,
  " enjoyed": 1529,
  "pe": 1530,
  " world": 1531,
  " three": 1532,
  " mus": 1533,
  " clothes": 1534,
  " child": 1535,
  "ner": 1536,
  "ister": 1537,
  "ingin": 1538,
  "\".": 1539,
  " why": 1540,
  " stayed": 1541,
  " might": 1542,
  " lesson": 1543,
  " gent": 1544,
  " deep": 1545,
  " cookies": 1546,
  "ape": 1547,
  "Bob": 1548,
  " white": 1549,
  " win": 1550,
  " waved": 1551,
  " pig": 1552,
  " hopped": 1553,
  " gif": 1554,
  " finished": 1555,
  " fill": 1556,
  " butterf": 1557,
  "Okay": 1558,
  " pictures": 1559,
  " leaf": 1560,
  " brother": 1561,
  " spot": 1562,
  " shop": 1563,
  " scre": 1564,
  " grow": 1565,
  " castle": 1566,
  "This": 1567,
  " colorful": 1568,
  "Lucy": 1569,
  " woods": 1570,
  " quick": 1571,
  " key": 1572,
  "John": 1573,
  "ully": 1574,
  "asure": 1575,
  " round": 1576,
  " everywhere": 1577,
  " There": 1578,
  "iet": 1579,
  " forgot": 1580,
  " arm": 1581,
  "ple": 1582,
  "ac": 1583,
  " quiet": 1584,
  "thy": 1585,
  " wished": 1586,
  " pare": 1587,
  " bran": 1588,
  " anything": 1589,
  "zz": 1590,
  "ssed": 1591,
  "lc": 1592,
  "imi": 1593,
  "icy": 1594,
  "fully": 1595,
  " gu": 1596,
  " dinner": 1597,
  "less": 1598,
  " himself": 1599,
  " Buddy": 1600,
  " Billy": 1601,
  "ds": 1602,
  " music": 1603,
  " held": 1604,
  " alone": 1605,
  " sister": 1606,
  " ride": 1607,
  " monster": 1608,
  " games": 1609,
  "ang": 1610,
  " wrong": 1611,
  " waited": 1612,
  " em": 1613,
  "ued": 1614,
  "ins": 1615,
  "ix": 1616,
  " sea": 1617,
  " Sarah": 1618,
  " seen": 1619,
  " break": 1620,
  " brought": 1621,
  "ton": 1622,
  "rag": 1623,
  " snack": 1624,
  " rel": 1625,
  " monkey": 1626,
  "rot": 1627,
  "ass": 1628,
  " well": 1629,
  " plant": 1630,
  " butterfly": 1631,
  "itten": 1632,
  "cle": 1633,
  " likes": 1634,
  " ju": 1635,
  " What": 1636,
  " egg": 1637,
  " danced": 1638,
  " dry": 1639,
  " bottle": 1640,
  " que": 1641,
  " year": 1642,
  " wants": 1643,
  " beach": 1644,
  "cess": 1645,
  " fairy": 1646,
  "row": 1647,
  "Amy": 1648,
  " makes": 1649,
  " cup": 1650,
  " bee": 1651,
  " att": 1652,
  " Daisy": 1653,
  "sc": 1654,
  "ini": 1655,
  " promised": 1656,
  " ve": 1657,
  "ph": 1658,
  " followed": 1659,
  " carefully": 1660,
  "ries": 1661,
  "ee": 1662,
  " quickly": 1663,
  " field": 1664,
  " Inside": 1665,
  "nin": 1666,
  " today": 1667,
  " To": 1668,
  " Em": 1669,
  " tower": 1670,
  " parents": 1671,
  " cra": 1672,
  " bigger": 1673,
  " Z": 1674,
  "Spot": 1675,
  "From": 1676,
  " gi": 1677,
  " ce": 1678,
  "ove": 1679,
  "ey": 1680,
  "ards": 1681,
  " nap": 1682,
  " gift": 1683,
  " danger": 1684,
  "onely": 1685,
  "ana": 1686,
  " silly": 1687,
  " sign": 1688,
  " lonely": 1689,
  " fre": 1690,
  "itch": 1691,
  ".â": 1692,
  " really": 1693,
  " orange": 1694,
  " kite": 1695,
  " faster": 1696,
  " Soon": 1697,
  " someone": 1698,
  " smart": 1699,
  " Mimi": 1700,
  "os": 1701,
  "cy": 1702,
  " without": 1703,
  " tight": 1704,
  " spr": 1705,
  " pol": 1706,
  " pre": 1707,
  " mar": 1708,
  " brown": 1709,
  " di": 1710,
  " wagged": 1711,
  " won": 1712,
  " talked": 1713,
  " pieces": 1714,
  " hit": 1715,
  " enough": 1716,
  " drink": 1717,
  "ated": 1718,
  " shin": 1719,
  " mail": 1720,
  " fur": 1721,
  " eating": 1722,
  " cro": 1723,
  " bath": 1724,
  "ren": 1725,
  "aught": 1726,
  "Do": 1727,
  " talking": 1728,
  " perfect": 1729,
  " pur": 1730,
  " lake": 1731,
  "ella": 1732,
  " sharing": 1733,
  "pper": 1734,
  "fish": 1735,
  "ence": 1736,
  " understand": 1737,
  " road": 1738,
  " mix": 1739,
  " contin": 1740,
  " branch": 1741,
  "oup": 1742,
  " belie": 1743,
  "itting": 1744,
  "amed": 1745,
  " wish": 1746,
  " pet": 1747,
  "His": 1748,
  " realized": 1749,
  " king": 1750,
  " ant": 1751,
  "gly": 1752,
  " rocks": 1753,
  " poin": 1754,
  " living": 1755,
  " ear": 1756,
  " children": 1757,
  "orning": 1758,
  "iver": 1759,
  " welc": 1760,
  " morning": 1761,
  " jar": 1762,
  "oun": 1763,
  "arm": 1764,
  "ance": 1765,
  " yes": 1766,
  " stone": 1767,
  " side": 1768,
  " num": 1769,
  " flying": 1770,
  " filled": 1771,
  " dolls": 1772,
  " delic": 1773,
  " cow": 1774,
  "ze": 1775,
  " worried": 1776,
  " throw": 1777,
  " pat": 1778,
  " owner": 1779,
  " juice": 1780,
  " continued": 1781,
  " buck": 1782,
  " bike": 1783,
  "ract": 1784,
  "pping": 1785,
  " smiles": 1786,
  " ph": 1787,
  " finally": 1788,
  " comp": 1789,
  " carrot": 1790,
  " Tommy": 1791,
  "lla": 1792,
  "eo": 1793,
  "amp": 1794,
  "althy": 1795,
  " stre": 1796,
  " apples": 1797,
  "br": 1798,
  " words": 1799,
  " sail": 1800,
  " river": 1801,
  "fort": 1802,
  "ast": 1803,
  " sitting": 1804,
  " crying": 1805,
  " button": 1806,
  " barked": 1807,
  " Bl": 1808,
  " At": 1809,
  "Mommy": 1810,
  " sang": 1811,
  " higher": 1812,
  " bowl": 1813,
  "used": 1814,
  "unch": 1815,
  "ich": 1816,
  "ead": 1817,
  " whist": 1818,
  " tasty": 1819,
  " sharp": 1820,
  " pudd": 1821,
  " free": 1822,
  " blank": 1823,
  " balls": 1824,
  " Joe": 1825,
  " welcome": 1826,
  " pill": 1827,
  " mat": 1828,
  " leg": 1829,
  " letter": 1830,
  " asks": 1831,
  "vel": 1832,
  "lder": 1833,
  "enny": 1834,
  "Just": 1835,
  " shining": 1836,
  " runs": 1837,
  " mine": 1838,
  " happen": 1839,
  " closed": 1840,
  " blanket": 1841,
  "stead": 1842,
  "cket": 1843,
  " vis": 1844,
  " laughing": 1845,
  " everything": 1846,
  " caught": 1847,
  " candy": 1848,
  "ves": 1849,
  "ato": 1850,
  " rolled": 1851,
  " mother": 1852,
  " fan": 1853,
  " el": 1854,
  " bor": 1855,
  " -": 1856,
  " coat": 1857,
  " Gra": 1858,
  "\n ": 1859,
  "ord": 1860,
  "irt": 1861,
  " stand": 1862,
  " sec": 1863,
  " heart": 1864,
  " dangerous": 1865,
  " drag": 1866,
  " bone": 1867,
  "sw": 1868,
  " moved": 1869,
  " answ": 1870,
  "set": 1871,
  "ises": 1872,
  "gy": 1873,
  "ail": 1874,
  "Maybe": 1875,
  " whe": 1876,
  " ele": 1877,
  " strange": 1878,
  " start": 1879,
  " secret": 1880,
  " fit": 1881,
  " else": 1882,
  "ung": 1883,
  "oth": 1884,
  "llie": 1885,
  " chair": 1886,
  " boun": 1887,
  "ctor": 1888,
  " wore": 1889,
  " trou": 1890,
  " paw": 1891,
  "isk": 1892,
  " singing": 1893,
  " rope": 1894,
  " pers": 1895,
  " band": 1896,
  "idge": 1897,
  "ama": 1898,
  " treasure": 1899,
  " sam": 1900,
  " same": 1901,
  " power": 1902,
  " mud": 1903,
  " mad": 1904,
  " Leo": 1905,
  "isa": 1906,
  "board": 1907,
  "While": 1908,
  "Jack": 1909,
  "Fin": 1910,
  " gentle": 1911,
  " corn": 1912,
  "ude": 1913,
  " woke": 1914,
  " visit": 1915,
  " herself": 1916,
  "unt": 1917,
  "ney": 1918,
  "ire": 1919,
  " shy": 1920,
  " sear": 1921,
  " dropped": 1922,
  " bucket": 1923,
  " believe": 1924,
  " Thank": 1925,
  "sp": 1926,
  "Please": 1927,
  " spoon": 1928,
  " nose": 1929,
  " dragon": 1930,
  " Blue": 1931,
  "ost": 1932,
  "izz": 1933,
  " thinks": 1934,
  " cookie": 1935,
  "iskers": 1936,
  " swings": 1937,
  " push": 1938,
  " lunch": 1939,
  " getting": 1940,
  " belong": 1941,
  "ased": 1942,
  " touc": 1943,
  " shook": 1944,
  " cute": 1945,
  " card": 1946,
  " black": 1947,
  " bite": 1948,
  "urtle": 1949,
  "phant": 1950,
  "ol": 1951,
  "!â": 1952,
  " seat": 1953,
  " soup": 1954,
  " rocket": 1955,
  " live": 1956,
  " kitten": 1957,
  " craw": 1958,
  " slowly": 1959,
  " shr": 1960,
  " ben": 1961,
  " Bella": 1962,
  "cing": 1963,
  "cer": 1964,
  "asket": 1965,
  " taking": 1966,
  " mark": 1967,
  " jour": 1968,
  " hoped": 1969,
  " holding": 1970,
  " eas": 1971,
  " boss": 1972,
  " basket": 1973,
  " Fred": 1974,
  "med": 1975,
  "ible": 1976,
  " wild": 1977,
  " vill": 1978,
  " ugly": 1979,
  " treats": 1980,
  " touched": 1981,
  " money": 1982,
  " joy": 1983,
  " days": 1984,
  " Maybe": 1985,
  "thday": 1986,
  "ourse": 1987,
  "irthday": 1988,
  "chool": 1989,
  "Lila": 1990,
  " years": 1991,
  " school": 1992,
  " inc": 1993,
  " forever": 1994,
  " dirt": 1995,
  " delicious": 1996,
  " course": 1997,
  " arri": 1998,
  " twins": 1999,
  " turtle": 2000,
  " string": 2001,
  " spo": 2002,
  " kiss": 2003,
  " gray": 2004,
  " Sp": 2005,
  "izza": 2006,
  "app": 2007,
  " teac": 2008,
  " shake": 2009,
  " puppy": 2010,
  " je": 2011,
  " feels": 2012,
  "ress": 2013,
  "iling": 2014,
  "est": 2015,
  " wra": 2016,
  " shell": 2017,
  " late": 2018,
  " farmer": 2019,
  " chees": 2020,
  " carry": 2021,
  " bush": 2022,
  " arrived": 2023,
  "sting": 2024,
  "ose": 2025,
  "ined": 2026,
  "ere": 2027,
  "ayon": 2028,
  "'ll": 2029,
  " tom": 2030,
  " storm": 2031,
  " shoes": 2032,
  " puddle": 2033,
  " puzz": 2034,
  " med": 2035,
  " intere": 2036,
  " fixed": 2037,
  " few": 2038,
  " cheese": 2039,
  "lower": 2040,
  "fused": 2041,
  " pop": 2042,
  " mist": 2043,
  " grew": 2044,
  " dist": 2045,
  " busy": 2046,
  "umpy": 2047,
  "igh": 2048,
  "eddy": 2049,
  " snowman": 2050,
  " sandw": 2051,
  " prob": 2052,
  " hiding": 2053,
  " amazing": 2054,
  " Whiskers": 2055,
  "bb": 2056,
  " worm": 2057,
  " wash": 2058,
  " rude": 2059,
  " queen": 2060,
  " promise": 2061,
  " interesting": 2062,
  " healthy": 2063,
  " crayon": 2064,
  " birthday": 2065,
  "ling": 2066,
  "Hey": 2067,
  " young": 2068,
  " wonderful": 2069,
  " whistle": 2070,
  " shelf": 2071,
  " plane": 2072,
  " pillow": 2073,
  " patient": 2074,
  " pile": 2075,
  " giant": 2076,
  " Ch": 2077,
  " ign": 2078,
  "lem": 2079,
  "igg": 2080,
  "ier": 2081,
  " war": 2082,
  " teacher": 2083,
  " problem": 2084,
  " nut": 2085,
  " moon": 2086,
  " life": 2087,
  " inv": 2088,
  " crab": 2089,
  " bow": 2090,
  " Ducky": 2091,
  "ount": 2092,
  "eared": 2093,
  " teach": 2094,
  " shirt": 2095,
  " res": 2096,
  " princess": 2097,
  " part": 2098,
  " past": 2099,
  " neck": 2100,
  " towards": 2101,
  " snake": 2102,
  " lay": 2103,
  " elephant": 2104,
  " Lisa": 2105,
  "ross": 2106,
  "oof": 2107,
  "ilk": 2108,
  "ipped": 2109,
  " wings": 2110,
  " village": 2111,
  " smo": 2112,
  " seed": 2113,
  " ser": 2114,
  " pocket": 2115,
  " milk": 2116,
  " landed": 2117,
  " doctor": 2118,
  " disapp": 2119,
  " creat": 2120,
  " bench": 2121,
  " amazed": 2122,
  " able": 2123,
  " Emma": 2124,
  "ors": 2125,
  "oman": 2126,
  "lebr": 2127,
  "irr": 2128,
  "fortable": 2129,
  "elly": 2130,
  " woman": 2131,
  " suddenly": 2132,
  " rub": 2133,
  " pizza": 2134,
  " drove": 2135,
  " coll": 2136,
  " cheered": 2137,
  " chick": 2138,
  " celebr": 2139,
  " bread": 2140,
  "rill": 2141,
  "ider": 2142,
  "St": 2143,
  " stepped": 2144,
  " foot": 2145,
  " driver": 2146,
  "ually": 2147,
  "ountain": 2148,
  "ond": 2149,
  "aughty": 2150,
  "OK": 2151,
  "Good": 2152,
  " street": 2153,
  " stories": 2154,
  " save": 2155,
  " naughty": 2156,
  " law": 2157,
  " hugs": 2158,
  " honey": 2159,
  " cart": 2160,
  " Grandma": 2161,
  "sy": 2162,
  "iger": 2163,
  "ian": 2164,
  "ek": 2165,
  "Later": 2166,
  "Kitty": 2167,
  " zoom": 2168,
  " sock": 2169,
  " slid": 2170,
  " path": 2171,
  " daddy": 2172,
  " cave": 2173,
  " bought": 2174,
  " across": 2175,
  " Ann": 2176,
  "ife": 2177,
  "ches": 2178,
  "Finally": 2179,
  " upset": 2180,
  " thin": 2181,
  " most": 2182,
  " fighting": 2183,
  " ducks": 2184,
  " bring": 2185,
  " Dog": 2186,
  "ert": 2187,
  " rob": 2188,
  " cover": 2189,
  " beak": 2190,
  "eter": 2191,
  "epend": 2192,
  "ens": 2193,
  "Be": 2194,
  " zoo": 2195,
  " purple": 2196,
  " powerful": 2197,
  " peace": 2198,
  " number": 2199,
  " mind": 2200,
  " grumpy": 2201,
  " Molly": 2202,
  "ular": 2203,
  "turn": 2204,
  "oop": 2205,
  "bow": 2206,
  " though": 2207,
  " spin": 2208,
  " suc": 2209,
  " lovely": 2210,
  " forget": 2211,
  " bell": 2212,
  " Momo": 2213,
  " Finally": 2214,
  "oose": 2215,
  "izzy": 2216,
  "erry": 2217,
  " wheel": 2218,
  " wasn": 2219,
  " trip": 2220,
  " shap": 2221,
  " sal": 2222,
  " return": 2223,
  " pour": 2224,
  " noises": 2225,
  " act": 2226,
  "upid": 2227,
  "not": 2228,
  " splash": 2229,
  " smelly": 2230,
  " seek": 2231,
  " saved": 2232,
  " sack": 2233,
  " pool": 2234,
  " journey": 2235,
  " fancy": 2236,
  " bugs": 2237,
  " bossy": 2238,
  " bat": 2239,
  "ity": 2240,
  "Of": 2241,
  " spider": 2242,
  " shapes": 2243,
  " puzzle": 2244,
  " net": 2245,
  " forgive": 2246,
  " fence": 2247,
  " dish": 2248,
  " clouds": 2249,
  " cannot": 2250,
  " ban": 2251,
  "ym": 2252,
  "ward": 2253,
  "oph": 2254,
  "To": 2255,
  " working": 2256,
  " stupid": 2257,
  " sounds": 2258,
  " messy": 2259,
  " meet": 2260,
  " easy": 2261,
  " cap": 2262,
  " brush": 2263,
  "llo": 2264,
  "eon": 2265,
  "Now": 2266,
  " val": 2267,
  " steal": 2268,
  " robot": 2269,
  " missed": 2270,
  " min": 2271,
  " grandma": 2272,
  " finish": 2273,
  " drive": 2274,
  " des": 2275,
  " ba": 2276,
  " anyone": 2277,
  " Tiny": 2278,
  "ocked": 2279,
  "kin": 2280,
  "Sure": 2281,
  "?â": 2282,
  " tie": 2283,
  " spark": 2284,
  " pigeon": 2285,
  " organ": 2286,
  " jelly": 2287,
  " helpful": 2288,
  " glass": 2289,
  " cloth": 2290,
  "to": 2291,
  "oomy": 2292,
  "mon": 2293,
  "ery": 2294,
  "bedient": 2295,
  "amond": 2296,
  "alm": 2297,
  " unk": 2298,
  " teddy": 2299,
  " rod": 2300,
  " rainbow": 2301,
  " puts": 2302,
  " poor": 2303,
  " obedient": 2304,
  " note": 2305,
  " mistake": 2306,
  " hor": 2307,
  " fake": 2308,
  " diamond": 2309,
  " unkn": 2310,
  " towel": 2311,
  " tiger": 2312,
  " ob": 2313,
  " magical": 2314,
  " lift": 2315,
  " huge": 2316,
  " grate": 2317,
  " glow": 2318,
  " exp": 2319,
  " class": 2320,
  " cir": 2321,
  " along": 2322,
  " Together": 2323,
  " Jill": 2324,
  "getable": 2325,
  "bled": 2326,
  " whole": 2327,
  " vegetable": 2328,
  " unknown": 2329,
  " takes": 2330,
  " sug": 2331,
  " phone": 2332,
  " pack": 2333,
  " later": 2334,
  " hope": 2335,
  " grateful": 2336,
  " adventures": 2337,
  " Mark": 2338,
  " On": 2339,
  "nan": 2340,
  "lderly": 2341,
  "ize": 2342,
  "com": 2343,
  " wondered": 2344,
  " watching": 2345,
  " taste": 2346,
  " splas": 2347,
  " sel": 2348,
  " rose": 2349,
  " person": 2350,
  " pan": 2351,
  " oven": 2352,
  " lock": 2353,
  " fing": 2354,
  " emb": 2355,
  " elderly": 2356,
  "ventually": 2357,
  "ions": 2358,
  "asp": 2359,
  " songs": 2360,
  " su": 2361,
  " potato": 2362,
  " pract": 2363,
  " lemon": 2364,
  " jumping": 2365,
  " ignor": 2366,
  " arms": 2367,
  "uce": 2368,
  "irror": 2369,
  "aur": 2370,
  " selfish": 2371,
  " scar": 2372,
  " pointed": 2373,
  " pin": 2374,
  " mirror": 2375,
  " longer": 2376,
  " line": 2377,
  " horse": 2378,
  " coo": 2379,
  " bark": 2380,
  " av": 2381,
  "scape": 2382,
  "ork": 2383,
  "icine": 2384,
  "col": 2385,
  "Sally": 2386,
  "Dad": 2387,
  " zip": 2388,
  " wis": 2389,
  " sheep": 2390,
  " seemed": 2391,
  " rough": 2392,
  " onto": 2393,
  " medicine": 2394,
  " drank": 2395,
  " couch": 2396,
  " comes": 2397,
  " Just": 2398,
  "ewel": 2399,
  "ever": 2400,
  "arra": 2401,
  " wrap": 2402,
  " supp": 2403,
  " such": 2404,
  " sick": 2405,
  " legs": 2406,
  " jewel": 2407,
  " instead": 2408,
  " hello": 2409,
  " faces": 2410,
  " fil": 2411,
  " embarra": 2412,
  " confused": 2413,
  " bounce": 2414,
  " Bear": 2415,
  "work": 2416,
  "una": 2417,
  "pty": 2418,
  "pill": 2419,
  "pillar": 2420,
  "emy": 2421,
  "dile": 2422,
  "codile": 2423,
  " wide": 2424,
  " step": 2425,
  " sort": 2426,
  " myster": 2427,
  " last": 2428,
  " gently": 2429,
  " empty": 2430,
  " eag": 2431,
  " dancing": 2432,
  " cho": 2433,
  " carried": 2434,
  " St": 2435,
  " Bu": 2436,
  "ment": 2437,
  "ball": 2438,
  "airs": 2439,
  "Soon": 2440,
  " wolf": 2441,
  " wave": 2442,
  " tries": 2443,
  " nearby": 2444,
  " maybe": 2445,
  " hats": 2446,
  " gives": 2447,
  " feed": 2448,
  " calm": 2449,
  " bal": 2450,
  "yard": 2451,
  "pect": 2452,
  "ipp": 2453,
  "elp": 2454,
  "azz": 2455,
  "adow": 2456,
  " tent": 2457,
  " spe": 2458,
  " smooth": 2459,
  " joke": 2460,
  " gather": 2461,
  " crocodile": 2462,
  " change": 2463,
  " backyard": 2464,
  " Mary": 2465,
  " Jenny": 2466,
  " How": 2467,
  " Doggy": 2468,
  "ume": 2469,
  "udy": 2470,
  " tool": 2471,
  " stars": 2472,
  " straw": 2473,
  " spicy": 2474,
  " soap": 2475,
  " sandwich": 2476,
  " rad": 2477,
  " pretended": 2478,
  " prot": 2479,
  " guess": 2480,
  " fat": 2481,
  " dogs": 2482,
  " dizzy": 2483,
  " clever": 2484,
  " building": 2485,
  " ash": 2486,
  " Come": 2487,
  "ormous": 2488,
  "berry": 2489,
  " trouble": 2490,
  " sticks": 2491,
  " spring": 2492,
  " sleepy": 2493,
  " hero": 2494,
  " feather": 2495,
  " fle": 2496,
  " enormous": 2497,
  " barn": 2498,
  " bake": 2499,
  "ult": 2500,
  "ness": 2501,
  "iff": 2502,
  "den": 2503,
  "Help": 2504,
  " waiting": 2505,
  " screamed": 2506,
  " suit": 2507,
  " rich": 2508,
  " rat": 2509,
  " plants": 2510,
  " lucky": 2511,
  " dug": 2512,
  " cost": 2513,
  " answer": 2514,
  "rated": 2515,
  "ont": 2516,
  "oppy": 2517,
  "And": 2518,
  " weak": 2519,
  " snacks": 2520,
  " search": 2521,
  " saus": 2522,
  " quest": 2523,
  " hidden": 2524,
  " gold": 2525,
  " fear": 2526,
  " chew": 2527,
  " cri": 2528,
  " bridge": 2529,
  " Ella": 2530,
  " Br": 2531,
  "ute": 2532,
  "arge": 2533,
  "Stop": 2534,
  "My": 2535,
  "Come": 2536,
  " test": 2537,
  " study": 2538,
  " print": 2539,
  " picks": 2540,
  " peaceful": 2541,
  " matter": 2542,
  " knocked": 2543,
  " jug": 2544,
  " front": 2545,
  " escape": 2546,
  " decor": 2547,
  " dig": 2548,
  " chicken": 2549,
  " With": 2550,
  "unk": 2551,
  "shine": 2552,
  "orrow": 2553,
  "onest": 2554,
  "mer": 2555,
  "iting": 2556,
  "ieved": 2557,
  "box": 2558,
  " trick": 2559,
  " tomorrow": 2560,
  " steak": 2561,
  " spray": 2562,
  " smelled": 2563,
  " scarf": 2564,
  " rec": 2565,
  " places": 2566,
  " kick": 2567,
  " imag": 2568,
  " honest": 2569,
  " crown": 2570,
  " ent": 2571,
  "ustrated": 2572,
  "mb": 2573,
  "iv": 2574,
  "io": 2575,
  "host": 2576,
  "erpillar": 2577,
  "alk": 2578,
  "ained": 2579,
  "adder": 2580,
  " sell": 2581,
  " reg": 2582,
  " hay": 2583,
  " har": 2584,
  " collect": 2585,
  " cozy": 2586,
  " chased": 2587,
  " caterpillar": 2588,
  " Their": 2589,
  " Please": 2590,
  " Jim": 2591,
  " '": 2592,
  "umble": 2593,
  "uitar": 2594,
  "ming": 2595,
  "ino": 2596,
  "ightened": 2597,
  "Are": 2598,
  " tear": 2599,
  " swan": 2600,
  " square": 2601,
  " sol": 2602,
  " smiling": 2603,
  " seal": 2604,
  " large": 2605,
  " ladder": 2606,
  " guitar": 2607,
  " ghost": 2608,
  " frustrated": 2609,
  " frightened": 2610,
  " clock": 2611,
  " clear": 2612,
  " chase": 2613,
  " appeared": 2614,
  " My": 2615,
  " Emily": 2616,
  "ones": 2617,
  "old": 2618,
  "icked": 2619,
  "bbles": 2620,
  "alous": 2621,
  " yelled": 2622,
  " vegetables": 2623,
  " uncle": 2624,
  " stret": 2625,
  " pay": 2626,
  " ord": 2627,
  " nothing": 2628,
  " newsp": 2629,
  " measure": 2630,
  " knee": 2631,
  " jealous": 2632,
  " drew": 2633,
  " drum": 2634,
  " bean": 2635,
  " Remy": 2636,
  " Mama": 2637,
  " Daddy": 2638,
  "ungle": 2639,
  "oto": 2640,
  "irp": 2641,
  "gest": 2642,
  "ensive": 2643,
  "acht": 2644,
  " yourself": 2645,
  " yacht": 2646,
  " wearing": 2647,
  " van": 2648,
  " relieved": 2649,
  " pear": 2650,
  " noisy": 2651,
  " mod": 2652,
  " loves": 2653,
  " liz": 2654,
  " jungle": 2655,
  " explor": 2656,
  " expensive": 2657,
  " eager": 2658,
  " dest": 2659,
  " chest": 2660,
  " celebrate": 2661,
  " body": 2662,
  " Bunny": 2663,
  "ten": 2664,
  "opard": 2665,
  "eb": 2666,
  " wip": 2667,
  " swimming": 2668,
  " stir": 2669,
  " stamp": 2670,
  " scare": 2671,
  " sour": 2672,
  " protect": 2673,
  " police": 2674,
  " plate": 2675,
  " pepper": 2676,
  " leopard": 2677,
  " jellyfish": 2678,
  " jog": 2679,
  " furry": 2680,
  " fold": 2681,
  " feet": 2682,
  " drawing": 2683,
  " coin": 2684,
  " cats": 2685,
  " ashamed": 2686,
  " ants": 2687,
  " TV": 2688,
  " Cat": 2689,
  "ractive": 2690,
  "ormal": 2691,
  "nic": 2692,
  "ned": 2693,
  "irit": 2694,
  "dom": 2695,
  "bor": 2696,
  " wake": 2697,
  " trust": 2698,
  " thoughtful": 2699,
  " ru": 2700,
  " newspaper": 2701,
  " mountain": 2702,
  " hairy": 2703,
  " harm": 2704,
  " goes": 2705,
  " glue": 2706,
  " gigg": 2707,
  " gen": 2708,
  " embarrassed": 2709,
  " disco": 2710,
  " cage": 2711,
  " asking": 2712,
  " acorn": 2713,
  " Somet": 2714,
  " 3": 2715,
  "rue": 2716,
  "la": 2717,
  "imp": 2718,
  "fee": 2719,
  "ffee": 2720,
  "elery": 2721,
  "Tommy": 2722,
  " yog": 2723,
  " witch": 2724,
  " toug": 2725,
  " sold": 2726,
  " rug": 2727,
  " picnic": 2728,
  " pass": 2729,
  " normal": 2730,
  " lab": 2731,
  " flag": 2732,
  " celery": 2733,
  " attractive": 2734,
  " Why": 2735,
  "utom": 2736,
  "utomob": 2737,
  "utomobile": 2738,
  "ual": 2739,
  "let": 2740,
  "keep": 2741,
  "issors": 2742,
  "ique": 2743,
  "corn": 2744,
  "cient": 2745,
  " waff": 2746,
  " unique": 2747,
  " tough": 2748,
  " spill": 2749,
  " saf": 2750,
  " remind": 2751,
  " ring": 2752,
  " prince": 2753,
  " prun": 2754,
  " moving": 2755,
  " mighty": 2756,
  " lazy": 2757,
  " incred": 2758,
  " hang": 2759,
  " hoop": 2760,
  " gener": 2761,
  " fruits": 2762,
  " finger": 2763,
  " coffee": 2764,
  " cheer": 2765,
  " careless": 2766,
  " become": 2767,
  " ancient": 2768,
  " Go": 2769,
  " Benny": 2770,
  "ubb": 2771,
  "rilli": 2772,
  "rob": 2773,
  "ject": 2774,
  " write": 2775,
  " understood": 2776,
  " tid": 2777,
  " sword": 2778,
  " sunshine": 2779,
  " sunf": 2780,
  " stood": 2781,
  " scissors": 2782,
  " rh": 2783,
  " rare": 2784,
  " polite": 2785,
  " pit": 2786,
  " lizard": 2787,
  " incredible": 2788,
  " hur": 2789,
  " generous": 2790,
  " ending": 2791,
  " cleaned": 2792,
  " brilli": 2793,
  " arrow": 2794,
  " Rex": 2795,
  " Ollie": 2796,
  " If": 2797,
  " Even": 2798,
  " Bobby": 2799,
  "keeper": 2800,
  "illa": 2801,
  "gen": 2802,
  "fra": 2803,
  "aking": 2804,
  " true": 2805,
  " tasted": 2806,
  " success": 2807,
  " stri": 2808,
  " squash": 2809,
  " sausage": 2810,
  " pro": 2811,
  " pow": 2812,
  " match": 2813,
  " market": 2814,
  " kicked": 2815,
  " hunt": 2816,
  " brilliant": 2817,
  " automobile": 2818,
  "tress": 2819,
  "lves": 2820,
  "fraid": 2821,
  "aughter": 2822,
  "angle": 2823,
  "How": 2824,
  " tidy": 2825,
  " tea": 2826,
  " stuff": 2827,
  " salad": 2828,
  " pray": 2829,
  " mattress": 2830,
  " knowing": 2831,
  " gun": 2832,
  " gate": 2833,
  " dead": 2834,
  " crayons": 2835,
  " covered": 2836,
  " cush": 2837,
  " blow": 2838,
  " bloom": 2839,
  " adventur": 2840,
  " afraid": 2841,
  " Pe": 2842,
  " Jerry": 2843,
  " Don": 2844,
  "vous": 2845,
  "ushroom": 2846,
  "robe": 2847,
  "roy": 2848,
  "ict": 2849,
  "abin": 2850,
  "Molly": 2851,
  "Here": 2852,
  " wouldn": 2853,
  " weird": 2854,
  " these": 2855,
  " sunflower": 2856,
  " shells": 2857,
  " neigh": 2858,
  " mic": 2859,
  " disg": 2860,
  " destroy": 2861,
  " crawl": 2862,
  " counted": 2863,
  " comb": 2864,
  " clay": 2865,
  " clap": 2866,
  " circle": 2867,
  " carrots": 2868,
  " cabin": 2869,
  " behave": 2870,
  " bathroom": 2871,
  " adventurous": 2872,
  " Luna": 2873,
  " Instead": 2874,
  "usting": 2875,
  "ulif": 2876,
  "udge": 2877,
  "ope": 2878,
  "land": 2879,
  "inal": 2880,
  "comfortable": 2881,
  "bers": 2882,
  " uncomfortable": 2883,
  " thie": 2884,
  " respect": 2885,
  " relax": 2886,
  " perform": 2887,
  " mole": 2888,
  " ignorant": 2889,
  " humble": 2890,
  " frame": 2891,
  " folder": 2892,
  " disgusting": 2893,
  " Jen": 2894,
  " ind": 2895,
  "usual": 2896,
  "ugg": 2897,
  "rella": 2898,
  "pes": 2899,
  "net": 2900,
  "mbrella": 2901,
  "isp": 2902,
  "inary": 2903,
  "ident": 2904,
  "icult": 2905,
  "iable": 2906,
  "ficult": 2907,
  "era": 2908,
  "ages": 2909,
  "ale": 2910,
  "Mum": 2911,
  " wing": 2912,
  " using": 2913,
  " unusual": 2914,
  " umbrella": 2915,
  " shrimp": 2916,
  " reliable": 2917,
  " paws": 2918,
  " mysterious": 2919,
  " magnet": 2920,
  " mask": 2921,
  " hose": 2922,
  " glove": 2923,
  " fridge": 2924,
  " eng": 2925,
  " difficult": 2926,
  " daughter": 2927,
  " cross": 2928,
  " caulif": 2929,
  " cand": 2930,
  " boring": 2931,
  " balloons": 2932,
  " balance": 2933,
  " asleep": 2934,
  " adm": 2935,
  " Sometimes": 2936,
  " Be": 2937,
  "ule": 2938,
  "osaur": 2939,
  "oot": 2940,
  "iginal": 2941,
  "ighed": 2942,
  "eth": 2943,
  "Together": 2944,
  "Sarah": 2945,
  " yours": 2946,
  " whisp": 2947,
  " unl": 2948,
  " twist": 2949,
  " tape": 2950,
  " stove": 2951,
  " splashed": 2952,
  " sque": 2953,
  " powder": 2954,
  " ones": 2955,
  " oy": 2956,
  " ner": 2957,
  " moms": 2958,
  " judge": 2959,
  " horn": 2960,
  " famous": 2961,
  " fis": 2962,
  " distur": 2963,
  " discover": 2964,
  " dinosaur": 2965,
  " bees": 2966,
  " Dolly": 2967,
  "tt": 2968,
  "tti": 2969,
  "sent": 2970,
  "irsty": 2971,
  "hetti": 2972,
  "fted": 2973,
  "erries": 2974,
  "cil": 2975,
  "aghetti": 2976,
  "affe": 2977,
  "aw": 2978,
  "Inside": 2979,
  " wagon": 2980,
  " travel": 2981,
  " spoiled": 2982,
  " spirit": 2983,
  " spaghetti": 2984,
  " ship": 2985,
  " radio": 2986,
  " roof": 2987,
  " poured": 2988,
  " pencil": 2989,
  " ordinary": 2990,
  " original": 2991,
  " numbers": 2992,
  " nervous": 2993,
  " mov": 2994,
  " mule": 2995,
  " mach": 2996,
  " knight": 2997,
  " island": 2998,
  " hopping": 2999,
  " harmless": 3000,
  " guil": 3001,
  " frown": 3002,
  " eggs": 3003,
  " dough": 3004,
  " crack": 3005,
  " corner": 3006,
  " closet": 3007,
  " chalk": 3008,
  " breath": 3009,
  " banana": 3010,
  " berries": 3011,
  " ang": 3012,
  " Sammy": 3013,
  " Some": 3014,
  "owed": 3015,
  "orilla": 3016,
  "ina": 3017,
  "ependent": 3018,
  "eze": 3019,
  "dern": 3020,
  "Billy": 3021,
  " troubled": 3022,
  " triangle": 3023,
  " thief": 3024,
  " thick": 3025,
  " sugar": 3026,
  " stage": 3027,
  " searched": 3028,
  " sailor": 3029,
  " sink": 3030,
  " resc": 3031,
  " quit": 3032,
  " present": 3033,
  " pal": 3034,
  " modern": 3035,
  " log": 3036,
  " lead": 3037,
  " independent": 3038,
  " creative": 3039,
  " coal": 3040,
  " chan": 3041,
  " cauliflower": 3042,
  " cop": 3043,
  " barber": 3044,
  " bull": 3045,
  " bin": 3046,
  " While": 3047,
  " Brown": 3048,
  " icy": 3049,
  "read": 3050,
  "itter": 3051,
  "bble": 3052,
  "ator": 3053,
  "any": 3054,
  "Timmy": 3055,
  " univer": 3056,
  " taken": 3057,
  " spread": 3058,
  " sailed": 3059,
  " painted": 3060,
  " pri": 3061,
  " jolly": 3062,
  " invited": 3063,
  " hears": 3064,
  " gloomy": 3065,
  " gym": 3066,
  " gorilla": 3067,
  " fork": 3068,
  " engine": 3069,
  " dive": 3070,
  " comput": 3071,
  " answered": 3072,
  "xious": 3073,
  "xe": 3074,
  "ither": 3075,
  "iness": 3076,
  "gu": 3077,
  "ground": 3078,
  "erc": 3079,
  "dle": 3080,
  "colate": 3081,
  "atch": 3082,
  "arming": 3083,
  "ado": 3084,
  "aff": 3085,
  "Go": 3086,
  "Every": 3087,
  " whip": 3088,
  " strawberry": 3089,
  " standing": 3090,
  " spent": 3091,
  " shape": 3092,
  " scream": 3093,
  " sauce": 3094,
  " pant": 3095,
  " mop": 3096,
  " lose": 3097,
  " knife": 3098,
  " hive": 3099,
  " guilty": 3100,
  " flute": 3101,
  " cleaning": 3102,
  " chocolate": 3103,
  " charming": 3104,
  " cher": 3105,
  " board": 3106,
  " batter": 3107,
  " anxious": 3108,
  " axe": 3109,
  " True": 3110,
  " Sn": 3111,
  "ubborn": 3112,
  "selves": 3113,
  "ser": 3114,
  "rage": 3115,
  "opl": 3116,
  "omes": 3117,
  "herman": 3118,
  "eropl": 3119,
  "cident": 3120,
  "attern": 3121,
  "als": 3122,
  "aving": 3123,
  "Mama": 3124,
  " which": 3125,
  " washed": 3126,
  " waffle": 3127,
  " useful": 3128,
  " tied": 3129,
  " stubborn": 3130,
  " smaller": 3131,
  " seeds": 3132,
  " returned": 3133,
  " palace": 3134,
  " pattern": 3135,
  " object": 3136,
  " impr": 3137,
  " helps": 3138,
  " fisherman": 3139,
  " filthy": 3140,
  " fine": 3141,
  " decide": 3142,
  " dull": 3143,
  " costume": 3144,
  " cries": 3145,
  " cone": 3146,
  " boys": 3147,
  " burn": 3148,
  " angel": 3149,
  " aeropl": 3150,
  "zzy": 3151,
  "ulb": 3152,
  "most": 3153,
  "irpy": 3154,
  "inocer": 3155,
  "inoceros": 3156,
  "ilt": 3157,
  "ament": 3158,
  "Jane": 3159,
  " valu": 3160,
  " taught": 3161,
  " tun": 3162,
  " times": 3163,
  " tank": 3164,
  " slipped": 3165,
  " serious": 3166,
  " sighed": 3167,
  " rhinoceros": 3168,
  " raft": 3169,
  " pants": 3170,
  " pump": 3171,
  " napkin": 3172,
  " machine": 3173,
  " lifted": 3174,
  " learning": 3175,
  " laughs": 3176,
  " homes": 3177,
  " exerc": 3178,
  " create": 3179,
  " castles": 3180,
  " bored": 3181,
  " aeroplane": 3182,
  " aunt": 3183,
  " Poppy": 3184,
  " Many": 3185,
  "ragile": 3186,
  "orry": 3187,
  "oc": 3188,
  "nament": 3189,
  "isted": 3190,
  "inky": 3191,
  "iddle": 3192,
  "esday": 3193,
  "aged": 3194,
  " wishes": 3195,
  " valuable": 3196,
  " thankful": 3197,
  " spilled": 3198,
  " shoot": 3199,
  " shore": 3200,
  " scr": 3201,
  " poem": 3202,
  " pasta": 3203,
  " ornament": 3204,
  " makeup": 3205,
  " loudly": 3206,
  " lotion": 3207,
  " hunter": 3208,
  " grand": 3209,
  " goose": 3210,
  " gar": 3211,
  " forward": 3212,
  " fearful": 3213,
  " fool": 3214,
  " exploring": 3215,
  " drop": 3216,
  " cushion": 3217,
  " crawled": 3218,
  " counting": 3219,
  " comple": 3220,
  " choose": 3221,
  " almost": 3222,
  " accident": 3223,
  " No": 3224,
  " Buzz": 3225,
  "useum": 3226,
  "rin": 3227,
  "opter": 3228,
  "icopter": 3229,
  "ipper": 3230,
  "appy": 3231,
  "Give": 3232,
  "Fluffy": 3233,
  " wand": 3234,
  " wool": 3235,
  " ur": 3236,
  " thirsty": 3237,
  " tire": 3238,
  " stones": 3239,
  " spotted": 3240,
  " space": 3241,
  " solve": 3242,
  " showing": 3243,
  " scatter": 3244,
  " popcorn": 3245,
  " playful": 3246,
  " movie": 3247,
  " meadow": 3248,
  " mushroom": 3249,
  " museum": 3250,
  " locked": 3251,
  " jeep": 3252,
  " impress": 3253,
  " helicopter": 3254,
  " foolish": 3255,
  " fragile": 3256,
  " dove": 3257,
  " diary": 3258,
  " decorate": 3259,
  " compet": 3260,
  " comfortable": 3261,
  " changed": 3262,
  " built": 3263,
  " bottom": 3264,
  " bulb": 3265,
  " attic": 3266,
  " Spike": 3267,
  " Jazz": 3268,
  " Bird": 3269,
  " U": 3270,
  "yal": 3271,
  "weet": 3272,
  "rible": 3273,
  "pron": 3274,
  "port": 3275,
  "pack": 3276,
  "ionary": 3277,
  "ictionary": 3278,
  "If": 3279,
  " wife": 3280,
  " vide": 3281,
  " teeth": 3282,
  " ter": 3283,
  " swinging": 3284,
  " sle": 3285,
  " sil": 3286,
  " roar": 3287,
  " persist": 3288,
  " middle": 3289,
  " mel": 3290,
  " map": 3291,
  " loyal": 3292,
  " licked": 3293,
  " low": 3294,
  " kissed": 3295,
  " joined": 3296,
  " happiness": 3297,
  " gasp": 3298,
  " forth": 3299,
  " finding": 3300,
  " delight": 3301,
  " dictionary": 3302,
  " computer": 3303,
  " compass": 3304,
  " case": 3305,
  " bubbles": 3306,
  " belonged": 3307,
  " apron": 3308,
  " Chirpy": 3309,
  " Andy": 3310,
  "umsy": 3311,
  "ray": 3312,
  "ext": 3313,
  "ention": 3314,
  "celet": 3315,
  "cut": 3316,
  " sung": 3317,
  " stronger": 3318,
  " shiver": 3319,
  " rubber": 3320,
  " raven": 3321,
  " popular": 3322,
  " painter": 3323,
  " package": 3324,
  " mixed": 3325,
  " march": 3326,
  " mug": 3327,
  " lively": 3328,
  " lawn": 3329,
  " label": 3330,
  " impressive": 3331,
  " harsh": 3332,
  " glowing": 3333,
  " giving": 3334,
  " garage": 3335,
  " fog": 3336,
  " fig": 3337,
  " eventually": 3338,
  " disturb": 3339,
  " depend": 3340,
  " compassion": 3341,
  " clumsy": 3342,
  " bracelet": 3343,
  " Today": 3344,
  " Bill": 3345,
  "ying": 3346,
  "opus": 3347,
  "nel": 3348,
  "lass": 3349,
  "lasses": 3350,
  "iew": 3351,
  "ctus": 3352,
  "ctopus": 3353,
  "apped": 3354,
  " yarn": 3355,
  " view": 3356,
  " terrible": 3357,
  " tele": 3358,
  " tick": 3359,
  " sunglasses": 3360,
  " stack": 3361,
  " speed": 3362,
  " spend": 3363,
  " snee": 3364,
  " skip": 3365,
  " regular": 3366,
  " raced": 3367,
  " octopus": 3368,
  " model": 3369,
  " marry": 3370,
  " managed": 3371,
  " leash": 3372,
  " knows": 3373,
  " half": 3374,
  " falls": 3375,
  " exciting": 3376,
  " excite": 3377,
  " deliver": 3378,
  " deaf": 3379,
  " cactus": 3380,
  " bald": 3381,
  " add": 3382,
  " Jess": 3383,
  " Ellie": 3384,
  " Al": 3385,
  "uth": 3386,
  "lcan": 3387,
  "light": 3388,
  "etle": 3389,
  " volcan": 3390,
  " tunnel": 3391,
  " truth": 3392,
  " tomato": 3393,
  " stat": 3394,
  " staff": 3395,
  " slept": 3396,
  " skin": 3397,
  " shark": 3398,
  " question": 3399,
  " prunes": 3400,
  " oyster": 3401,
  " nod": 3402,
  " mis": 3403,
  " mill": 3404,
  " hurts": 3405,
  " flash": 3406,
  " four": 3407,
  " exercise": 3408,
  " cooked": 3409,
  " cheap": 3410,
  " beetle": 3411,
  " ap": 3412,
  " Snow": 3413,
  " OK": 3414,
  "ygen": 3415,
  "xygen": 3416,
  "urkey": 3417,
  "rick": 3418,
  "rn": 3419,
  "ours": 3420,
  "istol": 3421,
  "ately": 3422,
  "Who": 3423,
  " weigh": 3424,
  " volcano": 3425,
  " towers": 3426,
  " torn": 3427,
  " tem": 3428,
  " tip": 3429,
  " task": 3430,
  " swe": 3431,
  " support": 3432,
  " stretch": 3433,
  " statue": 3434,
  " spear": 3435,
  " sleeping": 3436,
  " screw": 3437,
  " pumpkin": 3438,
  " photo": 3439,
  " persistent": 3440,
  " pistol": 3441,
  " organized": 3442,
  " ok": 3443,
  " meant": 3444,
  " lying": 3445,
  " junk": 3446,
  " improve": 3447,
  " handle": 3448,
  " goat": 3449,
  " float": 3450,
  " father": 3451,
  " env": 3452,
  " competit": 3453,
  " compassionate": 3454,
  " ceiling": 3455,
  " boxes": 3456,
  " brick": 3457,
  " ador": 3458,
  " acce": 3459,
  " Mum": 3460,
  "xible": 3461,
  "roph": 3462,
  "rophone": 3463,
  "llip": 3464,
  "llipop": 3465,
  "lend": 3466,
  "lace": 3467,
  "ippo": 3468,
  "ik": 3469,
  "erce": 3470,
  "angu": 3471,
  "Sorry": 3472,
  "Mummy": 3473,
  " yogurt": 3474,
  " word": 3475,
  " wheels": 3476,
  " walls": 3477,
  " waves": 3478,
  " wander": 3479,
  " vi": 3480,
  " unlock": 3481,
  " twig": 3482,
  " successful": 3483,
  " station": 3484,
  " stairs": 3485,
  " soar": 3486,
  " sniff": 3487,
  " sett": 3488,
  " rake": 3489,
  " passed": 3490,
  " nuts": 3491,
  " nods": 3492,
  " necklace": 3493,
  " microphone": 3494,
  " math": 3495,
  " louder": 3496,
  " lollipop": 3497,
  " lean": 3498,
  " lit": 3499,
  " langu": 3500,
  " hippo": 3501,
  " gum": 3502,
  " flexible": 3503,
  " figure": 3504,
  " fierce": 3505,
  " dependable": 3506,
  " compl": 3507,
  " clown": 3508,
  " bump": 3509,
  " bitter": 3510,
  " adorable": 3511,
  " Zoom": 3512,
  " People": 3513,
  " Mummy": 3514,
  "zed": 3515,
  "velope": 3516,
  "ubby": 3517,
  "pa": 3518,
  "ores": 3519,
  "body": 3520,
  "berries": 3521,
  "asing": 3522,
  "Where": 3523,
  " wheat": 3524,
  " wealthy": 3525,
  " ways": 3526,
  " walks": 3527,
  " video": 3528,
  " trains": 3529,
  " taller": 3530,
  " turkey": 3531,
  " sne": 3532,
  " shows": 3533,
  " shut": 3534,
  " shine": 3535,
  " ruined": 3536,
  " rode": 3537,
  " root": 3538,
  " rescue": 3539,
  " practiced": 3540,
  " nosy": 3541,
  " network": 3542,
  " neighbor": 3543,
  " needle": 3544,
  " missile": 3545,
  " mailbox": 3546,
  " language": 3547,
  " knob": 3548,
  " helpless": 3549,
  " heal": 3550,
  " harder": 3551,
  " guard": 3552,
  " gas": 3553,
  " exam": 3554,
  " envelope": 3555,
  " enc": 3556,
  " deer": 3557,
  " creature": 3558,
  " cooking": 3559,
  " complet": 3560,
  " chubby": 3561,
  " branches": 3562,
  " barrel": 3563,
  " bill": 3564,
  " avoc": 3565,
  " alert": 3566,
  " Ow": 3567,
  " Mrs": 3568,
  " Here": 3569,
  " Give": 3570,
  " Fro": 3571,
  "ymbo": 3572,
  "ymbol": 3573,
  "und": 3574,
  "ream": 3575,
  "lendar": 3576,
  "lph": 3577,
  "ilet": 3578,
  "igi": 3579,
  "ippy": 3580,
  "ebra": 3581,
  "cles": 3582,
  "arrel": 3583,
  "anut": 3584,
  "amera": 3585,
  "aky": 3586,
  "aid": 3587,
  "Jim": 3588,
  " zebra": 3589,
  " yet": 3590,
  " whispered": 3591,
  " tooth": 3592,
  " toilet": 3593,
  " thinking": 3594,
  " ten": 3595,
  " stared": 3596,
  " split": 3597,
  " skull": 3598,
  " short": 3599,
  " shade": 3600,
  " scoot": 3601,
  " symbol": 3602,
  " sight": 3603,
  " realised": 3604,
  " quarrel": 3605,
  " purse": 3606,
  " painting": 3607,
  " opens": 3608,
  " meat": 3609,
  " mot": 3610,
  " leaving": 3611,
  " haircut": 3612,
  " ham": 3613,
  " gifted": 3614,
  " gasped": 3615,
  " fluffy": 3616,
  " explained": 3617,
  " excitement": 3618,
  " ears": 3619,
  " dreams": 3620,
  " dolph": 3621,
  " competitive": 3622,
  " carp": 3623,
  " cabinet": 3624,
  " calendar": 3625,
  " camera": 3626,
  " Sandy": 3627,
  " Rose": 3628,
  " Ro": 3629,
  " Freddy": 3630,
  " Bet": 3631,
  "ubway": 3632,
  "uby": 3633,
  "time": 3634,
  "ote": 3635,
  "oin": 3636,
  "ines": 3637,
  "ilot": 3638,
  "ience": 3639,
  "htub": 3640,
  "ceed": 3641,
  "arl": 3642,
  "ailable": 3643,
  "Is": 3644,
  " whenever": 3645,
  " vase": 3646,
  " trash": 3647,
  " temple": 3648,
  " tease": 3649,
  " tag": 3650,
  " sunset": 3651,
  " shoe": 3652,
  " screen": 3653,
  " saying": 3654,
  " safely": 3655,
  " subway": 3656,
  " son": 3657,
  " rushed": 3658,
  " prov": 3659,
  " pus": 3660,
  " organize": 3661,
  " obser": 3662,
  " herb": 3663,
  " feathers": 3664,
  " eye": 3665,
  " envious": 3666,
  " enjoying": 3667,
  " deter": 3668,
  " cricket": 3669,
  " crib": 3670,
  " chores": 3671,
  " chain": 3672,
  " cob": 3673,
  " cell": 3674,
  " bury": 3675,
  " bathrobe": 3676,
  " bathtub": 3677,
  " available": 3678,
  " Your": 3679,
  " ed": 3680,
  "umb": 3681,
  "stairs": 3682,
  "ory": 3683,
  "loo": 3684,
  "ision": 3685,
  "iki": 3686,
  "iding": 3687,
  "iano": 3688,
  "head": 3689,
  "aspoon": 3690,
  "There": 3691,
  "Mr": 3692,
  "Me": 3693,
  "Little": 3694,
  "Bobo": 3695,
  " wrote": 3696,
  " unpack": 3697,
  " trap": 3698,
  " tray": 3699,
  " teaspoon": 3700,
  " switch": 3701,
  " stickers": 3702,
  " slides": 3703,
  " shopkeeper": 3704,
  " sheet": 3705,
  " repe": 3706,
  " rep": 3707,
  " pointing": 3708,
  " parrot": 3709,
  " notice": 3710,
  " needs": 3711,
  " nail": 3712,
  " means": 3713,
  " mild": 3714,
  " led": 3715,
  " knock": 3716,
  " kindness": 3717,
  " happening": 3718,
  " giraffe": 3719,
  " flashlight": 3720,
  " falling": 3721,
  " fountain": 3722,
  " either": 3723,
  " drawer": 3724,
  " disappeared": 3725,
  " determ": 3726,
  " design": 3727,
  " dare": 3728,
  " chess": 3729,
  " carpet": 3730,
  " cord": 3731,
  " borrow": 3732,
  " billboard": 3733,
  " Spark": 3734,
  "ye": 3735,
  "iches": 3736,
  "essert": 3737,
  "erable": 3738,
  "cean": 3739,
  " wiped": 3740,
  " week": 3741,
  " unite": 3742,
  " tricks": 3743,
  " toe": 3744,
  " succeed": 3745,
  " stable": 3746,
  " soldier": 3747,
  " shocked": 3748,
  " sandwiches": 3749,
  " ske": 3750,
  " record": 3751,
  " rise": 3752,
  " playground": 3753,
  " pebble": 3754,
  " pale": 3755,
  " pilot": 3756,
  " ocean": 3757,
  " miserable": 3758,
  " melon": 3759,
  " may": 3760,
  " lend": 3761,
  " jet": 3762,
  " gem": 3763,
  " encou": 3764,
  " earth": 3765,
  " disappoin": 3766,
  " disappear": 3767,
  " delicate": 3768,
  " dancer": 3769,
  " dessert": 3770,
  " cable": 3771,
  " bushes": 3772,
  " bikes": 3773,
  " biggest": 3774,
  " Tweet": 3775,
  " Miss": 3776,
  " ow": 3777,
  "usie": 3778,
  "uring": 3779,
  "ourite": 3780,
  "otter": 3781,
  "leton": 3782,
  "low": 3783,
  "hip": 3784,
  "chan": 3785,
  "cream": 3786,
  "apon": 3787,
  "anda": 3788,
  "Their": 3789,
  "?\".": 3790,
  " weapon": 3791,
  " value": 3792,
  " track": 3793,
  " tummy": 3794,
  " swung": 3795,
  " stud": 3796,
  " spoke": 3797,
  " spun": 3798,
  " skeleton": 3799,
  " shovel": 3800,
  " poke": 3801,
  " piano": 3802,
  " often": 3803,
  " nicely": 3804,
  " musician": 3805,
  " muff": 3806,
  " itself": 3807,
  " hut": 3808,
  " friendship": 3809,
  " flea": 3810,
  " favourite": 3811,
  " fastest": 3812,
  " club": 3813,
  " city": 3814,
  " battery": 3815,
  " bags": 3816,
  " bent": 3817,
  " Sh": 3818,
  " Prin": 3819,
  " Kim": 3820,
  " otter": 3821,
  "wards": 3822,
  "utes": 3823,
  "ummer": 3824,
  "sity": 3825,
  "rmomet": 3826,
  "rmometer": 3827,
  "leased": 3828,
  "imney": 3829,
  "iggly": 3830,
  "guin": 3831,
  "ero": 3832,
  "ement": 3833,
  "chair": 3834,
  "ckey": 3835,
  "arry": 3836,
  "ait": 3837,
  " viol": 3838,
  " trail": 3839,
  " thermometer": 3840,
  " tells": 3841,
  " tears": 3842,
  " team": 3843,
  " suggest": 3844,
  " sparkly": 3845,
  " skipped": 3846,
  " serve": 3847,
  " reminded": 3848,
  " ref": 3849,
  " rag": 3850,
  " penguin": 3851,
  " pir": 3852,
  " minutes": 3853,
  " mem": 3854,
  " mitten": 3855,
  " load": 3856,
  " jumps": 3857,
  " juicy": 3858,
  " hockey": 3859,
  " heat": 3860,
  " grown": 3861,
  " group": 3862,
  " giggled": 3863,
  " gear": 3864,
  " finds": 3865,
  " edge": 3866,
  " dolphin": 3867,
  " disappointed": 3868,
  " determined": 3869,
  " cube": 3870,
  " climbing": 3871,
  " cliff": 3872,
  " chimney": 3873,
  " blackboard": 3874,
  " Will": 3875,
  " Jimmy": 3876,
  " Gigi": 3877,
  " Buzzy": 3878,
  " Are": 3879,
  "zag": 3880,
  "usia": 3881,
  "ulance": 3882,
  "ressed": 3883,
  "ony": 3884,
  "igzag": 3885,
  "husia": 3886,
  "fa": 3887,
  "ents": 3888,
  "coa": 3889,
  "chanic": 3890,
  "cast": 3891,
  "bulance": 3892,
  "apers": 3893,
  "anas": 3894,
  "Wait": 3895,
  "Ouch": 3896,
  "'d": 3897,
  " violin": 3898,
  " tripped": 3899,
  " tub": 3900,
  " skirt": 3901,
  " searching": 3902,
  " sandcast": 3903,
  " reward": 3904,
  " refused": 3905,
  " questions": 3906,
  " quiz": 3907,
  " practice": 3908,
  " popped": 3909,
  " pee": 3910,
  " peanut": 3911,
  " peach": 3912,
  " pun": 3913,
  " order": 3914,
  " neat": 3915,
  " mechanic": 3916,
  " melt": 3917,
  " lip": 3918,
  " jam": 3919,
  " helper": 3920,
  " hate": 3921,
  " happier": 3922,
  " hanging": 3923,
  " grace": 3924,
  " evening": 3925,
  " enthusia": 3926,
  " dreaming": 3927,
  " drawings": 3928,
  " desk": 3929,
  " crazy": 3930,
  " cows": 3931,
  " cheerful": 3932,
  " cardboard": 3933,
  " bathe": 3934,
  " bananas": 3935,
  " avocado": 3936,
  " ambulance": 3937,
  " Or": 3938,
  " Kiki": 3939,
  "vision": 3940,
  "render": 3941,
  "par": 3942,
  "nger": 3943,
  "met": 3944,
  "dge": 3945,
  "bby": 3946,
  "ature": 3947,
  "aul": 3948,
  "Your": 3949,
  " yield": 3950,
  " wire": 3951,
  " wine": 3952,
  " television": 3953,
  " tide": 3954,
  " stream": 3955,
  " sty": 3956,
  " speak": 3957,
  " sport": 3958,
  " sofa": 3959,
  " sandcastle": 3960,
  " salt": 3961,
  " send": 3962,
  " rubbed": 3963,
  " rolling": 3964,
  " pressed": 3965,
  " picking": 3966,
  " onion": 3967,
  " once": 3968,
  " oxygen": 3969,
  " mistakes": 3970,
  " missing": 3971,
  " message": 3972,
  " medal": 3973,
  " lights": 3974,
  " libr": 3975,
  " lawy": 3976,
  " incre": 3977,
  " impressed": 3978,
  " helmet": 3979,
  " hours": 3980,
  " growl": 3981,
  " grill": 3982,
  " gaz": 3983,
  " firework": 3984,
  " file": 3985,
  " early": 3986,
  " distant": 3987,
  " complete": 3988,
  " complain": 3989,
  " cocoa": 3990,
  " candle": 3991,
  " camp": 3992,
  " boot": 3993,
  " bedroom": 3994,
  " bicy": 3995,
  " armchair": 3996,
  " above": 3997,
  " aw": 3998,
  " Zoomy": 3999,
  " Zip": 4000,
  " Sof": 4001,
  " Susie": 4002,
  " Pipp": 4003,
  " Peter": 4004,
  "vator": 4005,
  "urtain": 4006,
  "undry": 4007,
  "ulu": 4008,
  "ses": 4009,
  "ric": 4010,
  "ouses": 4011,
  "ophie": 4012,
  "ination": 4013,
  "hest": 4014,
  "coli": 4015,
  "ccoli": 4016,
  "aked": 4017,
  "Re": 4018,
  "Ow": 4019,
  "Gra": 4020,
  " university": 4021,
  " ticket": 4022,
  " themselves": 4023,
  " those": 4024,
  " telling": 4025,
  " steel": 4026,
  " stom": 4027,
  " spinning": 4028,
  " spade": 4029,
  " shrink": 4030,
  " scooter": 4031,
  " saving": 4032,
  " repeat": 4033,
  " repair": 4034,
  " problems": 4035,
  " point": 4036,
  " post": 4037,
  " pinch": 4038,
  " pastry": 4039,
  " panda": 4040,
  " oil": 4041,
  " meal": 4042,
  " maze": 4043,
  " men": 4044,
  " library": 4045,
  " lie": 4046,
  " laundry": 4047,
  " lid": 4048,
  " kne": 4049,
  " itch": 4050,
  " hotel": 4051,
  " houses": 4052,
  " golf": 4053,
  " gets": 4054,
  " film": 4055,
  " fought": 4056,
  " elevator": 4057,
  " driving": 4058,
  " dishes": 4059,
  " courage": 4060,
  " content": 4061,
  " curtain": 4062,
  " attach": 4063,
  " art": 4064,
  " admire": 4065,
  " Wiggly": 4066,
  " Rob": 4067,
  " Is": 4068,
  " Y": 4069,
  " V": 4070,
  "ured": 4071,
  "ugged": 4072,
  "under": 4073,
  "uesday": 4074,
  "stic": 4075,
  "rank": 4076,
  "iron": 4077,
  "igent": 4078,
  "fast": 4079,
  "ete": 4080,
  "elligent": 4081,
  "edy": 4082,
  "ecause": 4083,
  "aurant": 4084,
  "alley": 4085,
  "Mimi": 4086,
  "Em": 4087,
  "Bye": 4088,
  "Al": 4089,
  " windows": 4090,
  " winter": 4091,
  " whale": 4092,
  " weight": 4093,
  " thunder": 4094,
  " surrender": 4095,
  " squirrels": 4096,
  " sounded": 4097,
  " shaking": 4098,
  " seem": 4099,
  " scale": 4100,
  " restless": 4101,
  " restaurant": 4102,
  " reading": 4103,
  " rece": 4104,
  " rot": 4105,
  " riding": 4106,
  " price": 4107,
  " poked": 4108,
  " older": 4109,
  " oak": 4110,
  " nur": 4111,
  " lions": 4112,
  " lawyer": 4113,
  " invite": 4114,
  " intelligent": 4115,
  " hurry": 4116,
  " holes": 4117,
  " heads": 4118,
  " hen": 4119,
  " handed": 4120,
  " grapes": 4121,
  " gathered": 4122,
  " gain": 4123,
  " forgave": 4124,
  " enthusiastic": 4125,
  " doors": 4126,
  " comfort": 4127,
  " cherries": 4128,
  " calling": 4129,
  " breakfast": 4130,
  " bounced": 4131,
  " bicycle": 4132,
  " bandage": 4133,
  " Tuesday": 4134,
  "web": 4135,
  "stiv": 4136,
  "stival": 4137,
  "omed": 4138,
  "oved": 4139,
  "lies": 4140,
  "ipping": 4141,
  "cage": 4142,
  "atient": 4143,
  "aring": 4144,
  "agre": 4145,
  "acket": 4146,
  "ache": 4147,
  "Jimmy": 4148,
  "Jill": 4149,
  " wrapped": 4150,
  " warn": 4151,
  " valley": 4152,
  " tools": 4153,
  " spoil": 4154,
  " snail": 4155,
  " slip": 4156,
  " silver": 4157,
  " shadow": 4158,
  " roared": 4159,
  " remove": 4160,
  " puddles": 4161,
  " prep": 4162,
  " pole": 4163,
  " parade": 4164,
  " pair": 4165,
  " papers": 4166,
  " page": 4167,
  " nurse": 4168,
  " nature": 4169,
  " nation": 4170,
  " letters": 4171,
  " impatient": 4172,
  " imagine": 4173,
  " hedge": 4174,
  " grabs": 4175,
  " festival": 4176,
  " discovered": 4177,
  " disagre": 4178,
  " dra": 4179,
  " cobweb": 4180,
  " coins": 4181,
  " check": 4182,
  " cere": 4183,
  " carrying": 4184,
  " broccoli": 4185,
  " breaks": 4186,
  " birdcage": 4187,
  " arg": 4188,
  " allowed": 4189,
  " against": 4190,
  " Zoe": 4191,
  " Polly": 4192,
  " Mar": 4193,
  " Finny": 4194,
  " Everywhere": 4195,
  " Eventually": 4196,
  "uper": 4197,
  "rod": 4198,
  "ndor": 4199,
  "nal": 4200,
  "ison": 4201,
  "icle": 4202,
  "ggy": 4203,
  "ating": 4204,
  "ates": 4205,
  "anges": 4206,
  "Woof": 4207,
  "Joe": 4208,
  "Daddy": 4209,
  " zipper": 4210,
  " yaw": 4211,
  " vendor": 4212,
  " vine": 4213,
  " throws": 4214,
  " sweater": 4215,
  " style": 4216,
  " sticky": 4217,
  " sorting": 4218,
  " separ": 4219,
  " sandbox": 4220,
  " super": 4221,
  " size": 4222,
  " poems": 4223,
  " perfume": 4224,
  " port": 4225,
  " pine": 4226,
  " motor": 4227,
  " kinds": 4228,
  " journal": 4229,
  " jail": 4230,
  " jacket": 4231,
  " ins": 4232,
  " hurric": 4233,
  " harbor": 4234,
  " hammer": 4235,
  " hanger": 4236,
  " frowned": 4237,
  " frogs": 4238,
  " five": 4239,
  " explain": 4240,
  " dreamed": 4241,
  " dem": 4242,
  " colour": 4243,
  " cheek": 4244,
  " chose": 4245,
  " caring": 4246,
  " cane": 4247,
  " alarm": 4248,
  " Ruby": 4249,
  " Owl": 4250,
  " Lulu": 4251,
  "year": 4252,
  "verse": 4253,
  "umpet": 4254,
  "umbled": 4255,
  "ready": 4256,
  "olog": 4257,
  "night": 4258,
  "laud": 4259,
  "lp": 4260,
  "loe": 4261,
  "helf": 4262,
  "heart": 4263,
  "ffic": 4264,
  "chor": 4265,
  "astic": 4266,
  "arlie": 4267,
  "Did": 4268,
  ",â": 4269,
  "'ve": 4270,
  " weep": 4271,
  " wallet": 4272,
  " trunk": 4273,
  " trumpet": 4274,
  " toast": 4275,
  " stretched": 4276,
  " stomach": 4277,
  " stirred": 4278,
  " shakes": 4279,
  " settle": 4280,
  " summer": 4281,
  " sudden": 4282,
  " remain": 4283,
  " rail": 4284,
  " prayed": 4285,
  " perm": 4286,
  " parent": 4287,
  " metal": 4288,
  " marched": 4289,
  " mailman": 4290,
  " mention": 4291,
  " listening": 4292,
  " kingdom": 4293,
  " introd": 4294,
  " inse": 4295,
  " ink": 4296,
  " ignored": 4297,
  " hurricane": 4298,
  " holds": 4299,
  " graceful": 4300,
  " grape": 4301,
  " fireman": 4302,
  " distance": 4303,
  " cooler": 4304,
  " comf": 4305,
  " chickens": 4306,
  " checked": 4307,
  " cereal": 4308,
  " cur": 4309,
  " bookshelf": 4310,
  " blueberry": 4311,
  " basketball": 4312,
  " base": 4313,
  " apolog": 4314,
  " anyway": 4315,
  " anchor": 4316,
  " already": 4317,
  " alive": 4318,
  " airport": 4319,
  " accidentally": 4320,
  " accept": 4321,
  " ahead": 4322,
  " Sque": 4323,
  " Sm": 4324,
  " Pippin": 4325,
  " Pandy": 4326,
  " Help": 4327,
  " Betty": 4328,
  " iron": 4329,
  "sters": 4330,
  "lter": 4331,
  "gie": 4332,
  "bbon": 4333,
  "ampoo": 4334,
  "aggie": 4335,
  "aches": 4336,
  "Next": 4337,
  "Lisa": 4338,
  "Daisy": 4339,
  "Because": 4340,
  "==": 4341,
  " yoga": 4342,
  " wipe": 4343,
  " wags": 4344,
  " veh": 4345,
  " twisted": 4346,
  " tour": 4347,
  " sweetie": 4348,
  " sweetheart": 4349,
  " swamp": 4350,
  " strike": 4351,
  " spots": 4352,
  " sneeze": 4353,
  " snap": 4354,
  " smoke": 4355,
  " shampoo": 4356,
  " sent": 4357,
  " ribbon": 4358,
  " restore": 4359,
  " resist": 4360,
  " regret": 4361,
  " pushes": 4362,
  " provide": 4363,
  " proudly": 4364,
  " peeked": 4365,
  " packed": 4366,
  " pitch": 4367,
  " office": 4368,
  " offered": 4369,
  " nobody": 4370,
  " mystery": 4371,
  " muffin": 4372,
  " modest": 4373,
  " memory": 4374,
  " mall": 4375,
  " lick": 4376,
  " leak": 4377,
  " lime": 4378,
  " keeping": 4379,
  " jewelry": 4380,
  " ignore": 4381,
  " freez": 4382,
  " fro": 4383,
  " fixing": 4384,
  " drain": 4385,
  " destroyed": 4386,
  " demand": 4387,
  " delighted": 4388,
  " cub": 4389,
  " crossed": 4390,
  " country": 4391,
  " classroom": 4392,
  " circles": 4393,
  " comet": 4394,
  " buttons": 4395,
  " buzz": 4396,
  " broom": 4397,
  " belongs": 4398,
  " believed": 4399,
  " beg": 4400,
  " Lenny": 4401,
  " Johnny": 4402,
  " End": 4403,
  "vice": 4404,
  "utor": 4405,
  "urch": 4406,
  "ucet": 4407,
  "stal": 4408,
  "shion": 4409,
  "squ": 4410,
  "squit": 4411,
  "squito": 4412,
  "orch": 4413,
  "ophy": 4414,
  "ittens": 4415,
  "imed": 4416,
  "iest": 4417,
  "eration": 4418,
  "ense": 4419,
  "ecture": 4420,
  "case": 4421,
  "ason": 4422,
  "Yay": 4423,
  "Well": 4424,
  "Not": 4425,
  "Mary": 4426,
  "Grandma": 4427,
  "!\".": 4428,
  " zero": 4429,
  " vroom": 4430,
  " upstairs": 4431,
  " universe": 4432,
  " trophy": 4433,
  " theater": 4434,
  " thanks": 4435,
  " tutor": 4436,
  " strip": 4437,
  " strawberries": 4438,
  " strugg": 4439,
  " steps": 4440,
  " somewhere": 4441,
  " sniffed": 4442,
  " sliding": 4443,
  " shouts": 4444,
  " shelter": 4445,
  " separate": 4446,
  " rush": 4447,
  " prevent": 4448,
  " polish": 4449,
  " poison": 4450,
  " plastic": 4451,
  " pirate": 4452,
  " petals": 4453,
  " porch": 4454,
  " pony": 4455,
  " pages": 4456,
  " operation": 4457,
  " observe": 4458,
  " mosquito": 4459,
  " mass": 4460,
  " lecture": 4461,
  " lamp": 4462,
  " kneel": 4463,
  " insect": 4464,
  " incl": 4465,
  " image": 4466,
  " growing": 4467,
  " gro": 4468,
  " freezer": 4469,
  " fingers": 4470,
  " famil": 4471,
  " faucet": 4472,
  " fashion": 4473,
  " doesn": 4474,
  " crystal": 4475,
  " church": 4476,
  " cakes": 4477,
  " butterflies": 4478,
  " bumped": 4479,
  " buried": 4480,
  " brothers": 4481,
  " below": 4482,
  " barking": 4483,
  " balan": 4484,
  " bet": 4485,
  " allow": 4486,
  " advice": 4487,
  " Where": 4488,
  " Snowy": 4489,
  " Smith": 4490,
  " Paul": 4491,
  " Nana": 4492,
  " Joey": 4493,
  " Froggy": 4494,
  " Frank": 4495,
  "veal": 4496,
  "sterday": 4497,
  "play": 4498,
  "mble": 4499,
  "live": 4500,
  "ivi": 4501,
  "isdom": 4502,
  "igloo": 4503,
  "iform": 4504,
  "esterday": 4505,
  "drobe": 4506,
  "arian": 4507,
  "apa": 4508,
  "anger": 4509,
  "aced": 4510,
  "See": 4511,
  "Ready": 4512,
  "Ch": 4513,
  "..": 4514,
  ".'": 4515,
  " zookeeper": 4516,
  " yucky": 4517,
  " worms": 4518,
  " web": 4519,
  " washing": 4520,
  " wardrobe": 4521,
  " vehicle": 4522,
  " urge": 4523,
  " uniform": 4524,
  " twir": 4525,
  " tremble": 4526,
  " tong": 4527,
  " surprises": 4528,
  " suggested": 4529,
  " stro": 4530,
  " spell": 4531,
  " sorted": 4532,
  " smells": 4533,
  " suff": 4534,
  " reveal": 4535,
  " player": 4536,
  " peek": 4537,
  " pebbles": 4538,
  " paused": 4539,
  " pleased": 4540,
  " menu": 4541,
  " meowed": 4542,
  " lily": 4543,
  " jokes": 4544,
  " introduce": 4545,
  " highest": 4546,
  " greedy": 4547,
  " goal": 4548,
  " giggle": 4549,
  " football": 4550,
  " ext": 4551,
  " ended": 4552,
  " emer": 4553,
  " eagerly": 4554,
  " drops": 4555,
  " display": 4556,
  " dust": 4557,
  " cupboard": 4558,
  " claw": 4559,
  " choice": 4560,
  " chasing": 4561,
  " cared": 4562,
  " bookcase": 4563,
  " boats": 4564,
  " beep": 4565,
  " baking": 4566,
  " bak": 4567,
  " acorns": 4568,
  " Toto": 4569,
  " Pete": 4570,
  " Pat": 4571,
  " Look": 4572,
  " Fl": 4573,
  " Chloe": 4574,
  " Big": 4575,
  " igloo": 4576,
  "yth": 4577,
  "uddles": 4578,
  "ucture": 4579,
  "ucked": 4580,
  "riage": 4581,
  "orted": 4582,
  "mem": 4583,
  "lv": 4584,
  "lid": 4585,
  "inarian": 4586,
  "ides": 4587,
  "eterinarian": 4588,
  "essie": 4589,
  "emember": 4590,
  "eme": 4591,
  "ected": 4592,
  "eal": 4593,
  "come": 4594,
  "ations": 4595,
  "aroo": 4596,
  "angaroo": 4597,
  "anny": 4598,
  "amber": 4599,
  "apping": 4600,
  "Jenny": 4601,
  "Ha": 4602,
  " west": 4603,
  " warning": 4604,
  " warned": 4605,
  " wandered": 4606,
  " wigg": 4607,
  " veterinarian": 4608,
  " urged": 4609,
  " traffic": 4610,
  " thumb": 4611,
  " studied": 4612,
  " structure": 4613,
  " stranger": 4614,
  " sticker": 4615,
  " squee": 4616,
  " softly": 4617,
  " shrugged": 4618,
  " shower": 4619,
  " shivering": 4620,
  " shield": 4621,
  " season": 4622,
  " score": 4623,
  " scoop": 4624,
  " sadly": 4625,
  " ringing": 4626,
  " reverse": 4627,
  " reaches": 4628,
  " puzzles": 4629,
  " putting": 4630,
  " pies": 4631,
  " opin": 4632,
  " mixer": 4633,
  " minute": 4634,
  " meas": 4635,
  " leaned": 4636,
  " luck": 4637,
  " kangaroo": 4638,
  " jazz": 4639,
  " increase": 4640,
  " imagined": 4641,
  " hoping": 4642,
  " freeze": 4643,
  " colourful": 4644,
  " coats": 4645,
  " cherry": 4646,
  " chamber": 4647,
  " cards": 4648,
  " burned": 4649,
  " buckle": 4650,
  " brightly": 4651,
  " breeze": 4652,
  " breat": 4653,
  " applaud": 4654,
  " Sofia": 4655,
  " Sophie": 4656,
  " Slow": 4657,
  " Papa": 4658,
  " Jo": 4659,
  " Fo": 4660,
  " Brownie": 4661,
  " Abby": 4662,
  " â": 4663,
  "ythm": 4664,
  "we": 4665,
  "spit": 4666,
  "spital": 4667,
  "place": 4668,
  "ola": 4669,
  "ogn": 4670,
  "nesday": 4671,
  "medi": 4672,
  "mediately": 4673,
  "mare": 4674,
  "liday": 4675,
  "ls": 4676,
  "itation": 4677,
  "ippery": 4678,
  "inking": 4679,
  "icer": 4680,
  "hero": 4681,
  "ednesday": 4682,
  "eer": 4683,
  "azor": 4684,
  "asis": 4685,
  "Mark": 4686,
  "Ella": 4687,
  "Bobby": 4688,
  " trusted": 4689,
  " tornado": 4690,
  " tongue": 4691,
  " tug": 4692,
  " supply": 4693,
  " superhero": 4694,
  " starts": 4695,
  " stumbled": 4696,
  " squeeze": 4697,
  " slippery": 4698,
  " skill": 4699,
  " sits": 4700,
  " served": 4701,
  " scratch": 4702,
  " respectful": 4703,
  " recogn": 4704,
  " rained": 4705,
  " rabbits": 4706,
  " row": 4707,
  " razor": 4708,
  " poppy": 4709,
  " penny": 4710,
  " oranges": 4711,
  " olive": 4712,
  " oasis": 4713,
  " nightmare": 4714,
  " neighb": 4715,
  " massage": 4716,
  " marks": 4717,
  " insisted": 4718,
  " inf": 4719,
  " hospital": 4720,
  " holiday": 4721,
  " hook": 4722,
  " guessed": 4723,
  " fresh": 4724,
  " forgotten": 4725,
  " floated": 4726,
  " flour": 4727,
  " feelings": 4728,
  " fallen": 4729,
  " extra": 4730,
  " excitedly": 4731,
  " encourage": 4732,
  " deeper": 4733,
  " cutting": 4734,
  " cups": 4735,
  " climbs": 4736,
  " claws": 4737,
  " cape": 4738,
  " boots": 4739,
  " babies": 4740,
  " attached": 4741,
  " agree": 4742,
  " Wisdom": 4743,
  " Vivi": 4744,
  " Under": 4745,
  " Squeaky": 4746,
  " Su": 4747,
  " Rock": 4748,
  " Pinky": 4749,
  " Not": 4750,
  " Next": 4751,
  " Milly": 4752,
  " Jake": 4753,
  " Dave": 4754,
  " Cuddles": 4755,
  " x": 4756,
  "tain": 4757,
  "scope": 4758,
  "redient": 4759,
  "redients": 4760,
  "ops": 4761,
  "nce": 4762,
  "izes": 4763,
  "ites": 4764,
  "irring": 4765,
  "iraffe": 4766,
  "ingredients": 4767,
  "gency": 4768,
  "ctory": 4769,
  "axi": 4770,
  "atie": 4771,
  "Leo": 4772,
  "Before": 4773,
  "Bella": 4774,
  " wisdom": 4775,
  " tightly": 4776,
  " taxi": 4777,
  " stirring": 4778,
  " squeezed": 4779,
  " sisters": 4780,
  " shouldn": 4781,
  " selling": 4782,
  " seats": 4783,
  " scold": 4784,
  " six": 4785,
  " receive": 4786,
  " raised": 4787,
  " raise": 4788,
  " printed": 4789,
  " prize": 4790,
  " pretending": 4791,
  " prepare": 4792,
  " potatoes": 4793,
  " phot": 4794,
  " permit": 4795,
  " paid": 4796,
  " ourselves": 4797,
  " mustache": 4798,
  " moves": 4799,
  " mint": 4800,
  " mummy": 4801,
  " licks": 4802,
  " lands": 4803,
  " imagination": 4804,
  " immediately": 4805,
  " hurting": 4806,
  " hung": 4807,
  " hills": 4808,
  " hearts": 4809,
  " grocer": 4810,
  " grandpa": 4811,
  " given": 4812,
  " follows": 4813,
  " flood": 4814,
  " flame": 4815,
  " fart": 4816,
  " families": 4817,
  " factory": 4818,
  " expect": 4819,
  " ener": 4820,
  " easily": 4821,
  " dresses": 4822,
  " dressed": 4823,
  " delay": 4824,
  " dared": 4825,
  " counter": 4826,
  " collar": 4827,
  " chirp": 4828,
  " chance": 4829,
  " captain": 4830,
  " cudd": 4831,
  " blood": 4832,
  " beans": 4833,
  " baseball": 4834,
  " bother": 4835,
  " attention": 4836,
  " amazement": 4837,
  " Whenever": 4838,
  " Would": 4839,
  " Wednesday": 4840,
  " Rover": 4841,
  " Rollie": 4842,
  " Mittens": 4843,
  " Me": 4844,
  " Lee": 4845,
  " Happy": 4846,
  " Giraffe": 4847,
  " Finn": 4848,
  " ingredients": 4849,
  " \n": 4850,
  "zen": 4851,
  "speci": 4852,
  "specially": 4853,
  "noon": 4854,
  "laimed": 4855,
  "indeer": 4856,
  "ince": 4857,
  "ica": 4858,
  "ien": 4859,
  "do": 4860,
  "arnt": 4861,
  "ari": 4862,
  "agull": 4863,
  "Yuck": 4864,
  "Sh": 4865,
  " â": 4866,
  " writing": 4867,
  " worse": 4868,
  " winning": 4869,
  " understanding": 4870,
  " trade": 4871,
  " tonight": 4872,
  " thread": 4873,
  " teaching": 4874,
  " streng": 4875,
  " stops": 4876,
  " sting": 4877,
  " splashing": 4878,
  " solved": 4879,
  " socks": 4880,
  " soak": 4881,
  " sneezed": 4882,
  " seagull": 4883,
  " scattered": 4884,
  " reindeer": 4885,
  " radish": 4886,
  " quietly": 4887,
  " prune": 4888,
  " press": 4889,
  " playtime": 4890,
  " placed": 4891,
  " panic": 4892,
  " ped": 4893,
  " opinion": 4894,
  " meeting": 4895,
  " marriage": 4896,
  " learnt": 4897,
  " laid": 4898,
  " lung": 4899,
  " knot": 4900,
  " infant": 4901,
  " inst": 4902,
  " hopes": 4903,
  " guy": 4904,
  " gazed": 4905,
  " frozen": 4906,
  " flies": 4907,
  " fireplace": 4908,
  " explored": 4909,
  " exper": 4910,
  " exclaimed": 4911,
  " enter": 4912,
  " emergency": 4913,
  " especially": 4914,
  " dear": 4915,
  " dried": 4916,
  " daisy": 4917,
  " conf": 4918,
  " collection": 4919,
  " chairs": 4920,
  " cartoon": 4921,
  " calls": 4922,
  " breaking": 4923,
  " blowing": 4924,
  " beat": 4925,
  " barks": 4926,
  " apart": 4927,
  " afternoon": 4928,
  " admired": 4929,
  " added": 4930,
  " Tippy": 4931,
  " Teddy": 4932,
  " Lola": 4933,
  " Joy": 4934,
  " James": 4935,
  " Have": 4936,
  " Elly": 4937,
  " Dino": 4938,
  " Dare": 4939,
  " Charlie": 4940,
  " Cl": 4941,
  " Bow": 4942,
  "urther": 4943,
  "urpr": 4944,
  "umes": 4945,
  "uel": 4946,
  "ube": 4947,
  "roscope": 4948,
  "reen": 4949,
  "pted": 4950,
  "men": 4951,
  "lephant": 4952,
  "izing": 4953,
  "ities": 4954,
  "icing": 4955,
  "iving": 4956,
  "htray": 4957,
  "hood": 4958,
  "happy": 4959,
  "ges": 4960,
  "exture": 4961,
  "elcome": 4962,
  "eath": 4963,
  "aser": 4964,
  "anie": 4965,
  "aded": 4966,
  "Would": 4967,
  "Will": 4968,
  "Fred": 4969,
  "Emma": 4970,
  " zigzag": 4971,
  " wonders": 4972,
  " watered": 4973,
  " vanished": 4974,
  " tracks": 4975,
  " toes": 4976,
  " tucked": 4977,
  " tube": 4978,
  " texture": 4979,
  " suffer": 4980,
  " studying": 4981,
  " stealing": 4982,
  " stitch": 4983,
  " skipping": 4984,
  " shone": 4985,
  " replace": 4986,
  " ranch": 4987,
  " rul": 4988,
  " pulls": 4989,
  " photos": 4990,
  " passport": 4991,
  " pans": 4992,
  " offer": 4993,
  " myself": 4994,
  " monkeys": 4995,
  " miner": 4996,
  " microscope": 4997,
  " manage": 4998,
  " lives": 4999,
  " lemonade": 5000,
  " limes": 5001,
  " kindly": 5002,
  " grant": 5003,
  " flapped": 5004,
  " experience": 5005,
  " examine": 5006,
  " embarrass": 5007,
  " drinks": 5008,
  " disagreed": 5009,
  " crawling": 5010,
  " costumes": 5011,
  " copper": 5012,
  " brings": 5013,
  " blueberries": 5014,
  " beauty": 5015,
  " baked": 5016,
  " ashtray": 5017,
  " accepted": 5018,
  " Stitch": 5019,
  " May": 5020,
  " Maggie": 5021,
  " Jessica": 5022,
  " Ho": 5023,
  " God": 5024,
  " Good": 5025,
  " Frog": 5026,
  " Co": 5027,
  " Blink": 5028,
  " Birdy": 5029,
  " Before": 5030,
  " Bally": 5031,
  "ween": 5032,
  "walk": 5033,
  "urprise": 5034,
  "unately": 5035,
  "uss": 5036,
  "thank": 5037,
  "sed": 5038,
  "raised": 5039,
  "quest": 5040,
  "ouncy": 5041,
  "oby": 5042,
  "laire": 5043,
  "iolet": 5044,
  "icorn": 5045,
  "hter": 5046,
  "etch": 5047,
  "dam": 5048,
  "cuss": 5049,
  "book": 5050,
  "boo": 5051,
  "atched": 5052,
  "Everyone": 5053,
  "Ann": 5054,
  "All": 5055,
  " weather": 5056,
  " veil": 5057,
  " unicorn": 5058,
  " unhappy": 5059,
  " tomatoes": 5060,
  " tore": 5061,
  " teasing": 5062,
  " surf": 5063,
  " strength": 5064,
  " steam": 5065,
  " stair": 5066,
  " sidewalk": 5067,
  " sew": 5068,
  " since": 5069,
  " rules": 5070,
  " removed": 5071,
  " racing": 5072,
  " punished": 5073,
  " punish": 5074,
  " prett": 5075,
  " planted": 5076,
  " patch": 5077,
  " praised": 5078,
  " notebook": 5079,
  " novel": 5080,
  " names": 5081,
  " mineral": 5082,
  " master": 5083,
  " laughter": 5084,
  " include": 5085,
  " hers": 5086,
  " grocery": 5087,
  " gloves": 5088,
  " fort": 5089,
  " following": 5090,
  " further": 5091,
  " energy": 5092,
  " elephants": 5093,
  " eaten": 5094,
  " donkey": 5095,
  " discuss": 5096,
  " curled": 5097,
  " crane": 5098,
  " comfy": 5099,
  " collecting": 5100,
  " celebration": 5101,
  " buckets": 5102,
  " between": 5103,
  " belt": 5104,
  " bears": 5105,
  " appro": 5106,
  " Toby": 5107,
  " Snowman": 5108,
  " Rocky": 5109,
  " Remember": 5110,
  " Little": 5111,
  " Ke": 5112,
  " Hop": 5113,
  " Grand": 5114,
  " Each": 5115,
  " Bug": 5116,
  " Bouncy": 5117,
  " Binky": 5118,
  " Bessie": 5119,
  " er": 5120,
  " Once": 5121,
  "uggled": 5122,
  "uggage": 5123,
  "shed": 5124,
  "rect": 5125,
  "raged": 5126,
  "ouch": 5127,
  "mend": 5128,
  "lsa": 5129,
  "looking": 5130,
  "ising": 5131,
  "ipe": 5132,
  "inked": 5133,
  "ids": 5134,
  "ercy": 5135,
  "enge": 5136,
  "commend": 5137,
  "cious": 5138,
  "bert": 5139,
  "azine": 5140,
  "allenge": 5141,
  "aby": 5142,
  "abella": 5143,
  "Welcome": 5144,
  "Today": 5145,
  "These": 5146,
  "Thanks": 5147,
  "Surprise": 5148,
  "Momo": 5149,
  "Bird": 5150,
  "Alice": 5151,
  "\",": 5152,
  "!\",": 5153,
  " zoomed": 5154,
  " yawned": 5155,
  " worth": 5156,
  " wiggle": 5157,
  " whistled": 5158,
  " whisper": 5159,
  " watches": 5160,
  " waits": 5161,
  " unlocked": 5162,
  " treasures": 5163,
  " throwing": 5164,
  " sticking": 5165,
  " starting": 5166,
  " sneaky": 5167,
  " snuggled": 5168,
  " snapped": 5169,
  " silence": 5170,
  " shoulder": 5171,
  " shined": 5172,
  " settled": 5173,
  " scolded": 5174,
  " sir": 5175,
  " recor": 5176,
  " resp": 5177,
  " request": 5178,
  " recommend": 5179,
  " quite": 5180,
  " pigs": 5181,
  " peanuts": 5182,
  " patterns": 5183,
  " opera": 5184,
  " oh": 5185,
  " meow": 5186,
  " matches": 5187,
  " married": 5188,
  " magazine": 5189,
  " mister": 5190,
  " lightning": 5191,
  " letting": 5192,
  " luggage": 5193,
  " keeper": 5194,
  " jogged": 5195,
  " invitation": 5196,
  " instr": 5197,
  " inch": 5198,
  " hadn": 5199,
  " hall": 5200,
  " grin": 5201,
  " folded": 5202,
  " flat": 5203,
  " fireworks": 5204,
  " feeding": 5205,
  " fed": 5206,
  " creatures": 5207,
  " challenge": 5208,
  " candles": 5209,
  " bubble": 5210,
  " bravely": 5211,
  " brain": 5212,
  " blinked": 5213,
  " beneath": 5214,
  " bend": 5215,
  " bakery": 5216,
  " badly": 5217,
  " argue": 5218,
  " approached": 5219,
  " apologized": 5220,
  " activ": 5221,
  " Zigzag": 5222,
  " Un": 5223,
  " Sparky": 5224,
  " Sharing": 5225,
  " Sun": 5226,
  " Mo": 5227,
  " Katie": 5228,
  " Hopper": 5229,
  " Hoot": 5230,
  " Grandpa": 5231,
  " Grace": 5232,
  " Elephant": 5233,
  " Chick": 5234,
  " Acorn": 5235,
  "ups": 5236,
  "uct": 5237,
  "ssible": 5238,
  "reck": 5239,
  "phone": 5240,
  "omeday": 5241,
  "ky": 5242,
  "kins": 5243,
  "iggles": 5244,
  "ium": 5245,
  "iers": 5246,
  "go": 5247,
  "fortunately": 5248,
  "ety": 5249,
  "cycle": 5250,
  "cond": 5251,
  "cense": 5252,
  "ayak": 5253,
  "avid": 5254,
  "aped": 5255,
  "adium": 5256,
  "With": 5257,
  "Watch": 5258,
  "True": 5259,
  "Ok": 5260,
  "May": 5261,
  "Eventually": 5262,
  "Buddy": 5263,
  " worker": 5264,
  " waffles": 5265,
  " waving": 5266,
  " wreck": 5267,
  " visited": 5268,
  " vest": 5269,
  " underground": 5270,
  " twink": 5271,
  " trave": 5272,
  " theirs": 5273,
  " telephone": 5274,
  " tastes": 5275,
  " stadium": 5276,
  " sprink": 5277,
  " spending": 5278,
  " spit": 5279,
  " soldiers": 5280,
  " sneak": 5281,
  " slap": 5282,
  " shopping": 5283,
  " seeing": 5284,
  " second": 5285,
  " sausages": 5286,
  " safety": 5287,
  " someday": 5288,
  " sizes": 5289,
  " sip": 5290,
  " ruler": 5291,
  " rooms": 5292,
  " ropes": 5293,
  " rescued": 5294,
  " result": 5295,
  " remained": 5296,
  " relaxed": 5297,
  " quack": 5298,
  " pushing": 5299,
  " planes": 5300,
  " oat": 5301,
  " napping": 5302,
  " motorcycle": 5303,
  " moments": 5304,
  " mama": 5305,
  " lips": 5306,
  " license": 5307,
  " leather": 5308,
  " lined": 5309,
  " kayak": 5310,
  " item": 5311,
  " happens": 5312,
  " growled": 5313,
  " girls": 5314,
  " gathering": 5315,
  " entered": 5316,
  " encouraged": 5317,
  " eagle": 5318,
  " downstairs": 5319,
  " during": 5320,
  " contest": 5321,
  " clapping": 5322,
  " celebrated": 5323,
  " brighter": 5324,
  " breathe": 5325,
  " brushed": 5326,
  " biting": 5327,
  " bites": 5328,
  " balanced": 5329,
  " ashes": 5330,
  " anywhere": 5331,
  " ann": 5332,
  " allig": 5333,
  " agreement": 5334,
  " Who": 5335,
  " See": 5336,
  " Ray": 5337,
  " Percy": 5338,
  " Maria": 5339,
  " Kate": 5340,
  " Jacky": 5341,
  " Fox": 5342,
  " Cra": 5343,
  " Betsy": 5344,
  " Alice": 5345,
  "zi": 5346,
  "usty": 5347,
  "umber": 5348,
  "uest": 5349,
  "sing": 5350,
  "rian": 5351,
  "rec": 5352,
  "reci": 5353,
  "rs": 5354,
  "rr": 5355,
  "quake": 5356,
  "oys": 5357,
  "orses": 5358,
  "lue": 5359,
  "jo": 5360,
  "ishy": 5361,
  "ishing": 5362,
  "imple": 5363,
  "iggy": 5364,
  "ezi": 5365,
  "eve": 5366,
  "eave": 5367,
  "choo": 5368,
  "angers": 5369,
  "ann": 5370,
  "anna": 5371,
  "acked": 5372,
  "Stay": 5373,
  "Sp": 5374,
  "Moral": 5375,
  "Emily": 5376,
  "Dog": 5377,
  "Bu": 5378,
  "===": 5522,
  " zipped": 5380,
  " workers": 5381,
  " wondering": 5382,
  " whistles": 5383,
  " wob": 5384,
  " villag": 5385,
  " vanish": 5386,
  " twin": 5387,
  " tubes": 5388,
  " trips": 5389,
  " stripes": 5390,
  " stretching": 5391,
  " strangers": 5392,
  " sprayed": 5393,
  " spike": 5394,
  " soared": 5395,
  " sneaked": 5396,
  " sights": 5397,
  " setting": 5398,
  " screaming": 5399,
  " simple": 5400,
  " sigh": 5401,
  " roads": 5402,
  " rhythm": 5403,
  " rang": 5404,
  " provided": 5405,
  " project": 5406,
  " presents": 5407,
  " precious": 5408,
  " pride": 5409,
  " poking": 5410,
  " planned": 5411,
  " piles": 5412,
  " pencils": 5413,
  " pedals": 5414,
  " parts": 5415,
  " pipe": 5416,
  " oysters": 5417,
  " organizing": 5418,
  " ordered": 5419,
  " onwards": 5420,
  " olives": 5421,
  " nowhere": 5422,
  " news": 5423,
  " neighbour": 5424,
  " mouths": 5425,
  " measured": 5426,
  " muddy": 5427,
  " mice": 5428,
  " merry": 5429,
  " loop": 5430,
  " loses": 5431,
  " laser": 5432,
  " lines": 5433,
  " kneeled": 5434,
  " knelt": 5435,
  " kisses": 5436,
  " kicking": 5437,
  " ideas": 5438,
  " happiest": 5439,
  " handful": 5440,
  " horses": 5441,
  " grinned": 5442,
  " glasses": 5443,
  " gifts": 5444,
  " guest": 5445,
  " gained": 5446,
  " forgets": 5447,
  " floating": 5448,
  " flap": 5449,
  " fetch": 5450,
  " exit": 5451,
  " earthquake": 5452,
  " drinking": 5453,
  " decides": 5454,
  " cushions": 5455,
  " copy": 5456,
  " candies": 5457,
  " buzzing": 5458,
  " bricks": 5459,
  " bouncy": 5460,
  " bouncing": 5461,
  " bloomed": 5462,
  " appreci": 5463,
  " appear": 5464,
  " alligator": 5465,
  " Yesterday": 5466,
  " Wiggles": 5467,
  " Tara": 5468,
  " Stop": 5469,
  " Spin": 5470,
  " Sky": 5471,
  " Red": 5472,
  " Pizza": 5473,
  " Meg": 5474,
  " Mushroom": 5475,
  " Josh": 5476,
  " Janie": 5477,
  " For": 5478,
  " Elsa": 5479,
  " Clara": 5480,
  " Cow": 5481,
  " Both": 5482,
  " Barry": 5483,
  "usb": 5484,
  "usband": 5485,
  "unchy": 5486,
  "ulp": 5487,
  "udience": 5488,
  "raight": 5489,
  "ris": 5490,
  "ring": 5491,
  "riger": 5492,
  "rigerator": 5493,
  "quip": 5494,
  "quipment": 5495,
  "plash": 5496,
  "ories": 5497,
  "ored": 5498,
  "lvet": 5499,
  "itches": 5500,
  "hee": 5501,
  "hind": 5502,
  "ha": 5503,
  "erious": 5504,
  "ena": 5505,
  "eds": 5506,
  "bey": 5507,
  "aws": 5508,
  "atty": 5509,
  "Yum": 5510,
  "Whiskers": 5511,
  "Time": 5512,
  "Ruby": 5513,
  "Rob": 5514,
  "Remy": 5515,
  "Qu": 5516,
  "Johnny": 5517,
  "Happy": 5518,
  "Ex": 5519,
  "Dave": 5520,
  "Blue": 5521,
  "'.": 5523,
  " works": 5524,
  " wooden": 5525,
  " weeping": 5526,
  " wagging": 5527,
  " velvet": 5528,
  " vines": 5529,
  " trapped": 5530,
  " traded": 5531,
  " threat": 5532,
  " thrill": 5533,
  " students": 5534,
  " strings": 5535,
  " straight": 5536,
  " stain": 5537,
  " splashes": 5538,
  " sparkled": 5539,
  " sorts": 5540,
  " soc": 5541,
  " slapped": 5542,
  " skills": 5543,
  " sailing": 5544,
  " rip": 5545,
  " revealed": 5546,
  " refrigerator": 5547,
  " recording": 5548,
  " recorded": 5549,
  " recognize": 5550,
  " released": 5551,
  " pulling": 5552,
  " pup": 5553,
  " prettier": 5554,
  " pops": 5555,
  " points": 5556,
  " plays": 5557,
  " planet": 5558,
  " perfectly": 5559,
  " pearl": 5560,
  " peas": 5561,
  " ours": 5562,
  " observed": 5563,
  " oats": 5564,
  " obey": 5565,
  " none": 5566,
  " nicer": 5567,
  " muscles": 5568,
  " motion": 5569,
  " mixing": 5570,
  " mission": 5571,
  " melting": 5572,
  " magnets": 5573,
  " logs": 5574,
  " lied": 5575,
  " lets": 5576,
  " laying": 5577,
  " keeps": 5578,
  " kites": 5579,
  " jogging": 5580,
  " hits": 5581,
  " hes": 5582,
  " hardly": 5583,
  " husband": 5584,
  " hon": 5585,
  " guys": 5586,
  " gotten": 5587,
  " golden": 5588,
  " glitter": 5589,
  " farther": 5590,
  " equipment": 5591,
  " eight": 5592,
  " eff": 5593,
  " east": 5594,
  " doggy": 5595,
  " disturbed": 5596,
  " difference": 5597,
  " demanded": 5598,
  " decorations": 5599,
  " crashed": 5600,
  " crash": 5601,
  " crunchy": 5602,
  " collected": 5603,
  " chewed": 5604,
  " chef": 5605,
  " catches": 5606,
  " bye": 5607,
  " brid": 5608,
  " blankets": 5609,
  " blouse": 5610,
  " begin": 5611,
  " beds": 5612,
  " boo": 5613,
  " bones": 5614,
  " argued": 5615,
  " answers": 5616,
  " ago": 5617,
  " actually": 5618,
  " audience": 5619,
  " Tina": 5620,
  " Tato": 5621,
  " Suzy": 5622,
  " Stay": 5623,
  " Spinny": 5624,
  " Prince": 5625,
  " Navy": 5626,
  " Mouse": 5627,
  " Lou": 5628,
  " Lizzy": 5629,
  " Later": 5630,
  " Jessie": 5631,
  " Henny": 5632,
  " Everything": 5633,
  " Coco": 5634,
  " Car": 5635,
  " Birdie": 5636,
  "â.": 5637,
  "zie": 5638,
  "ylv": 5639,
  "ylvia": 5640,
  "vest": 5641,
  "vestig": 5642,
  "vestigate": 5643,
  "va": 5644,
  "ubbles": 5645,
  "uke": 5646,
  "tuce": 5647,
  "scaped": 5648,
  "rise": 5649,
  "right": 5650,
  "ounds": 5651,
  "osed": 5652,
  "orge": 5653,
  "mbling": 5654,
  "llen": 5655,
  "liver": 5656,
  "izard": 5657,
  "itched": 5658,
  "ips": 5659,
  "int": 5660,
  "ining": 5661,
  "ighty": 5662,
  "idey": 5663,
  "ived": 5664,
  "ib": 5665,
  "iam": 5666,
  "hello": 5667,
  "father": 5668,
  "edd": 5669,
  "edding": 5670,
  "compl": 5671,
  "chie": 5672,
  "cus": 5673,
  "aterpillar": 5674,
  "antly": 5675,
  "anga": 5676,
  "anes": 5677,
  "aved": 5678,
  "ales": 5679,
  "Un": 5680,
  "Sandy": 5681,
  "Peter": 5682,
  "Jazz": 5683,
  "Fo": 5684,
  "Boo": 5685,
  "Achoo": 5686,
  " zooming": 5687,
  " whistling": 5688,
  " welcomed": 5689,
  " woof": 5690,
  " wizard": 5691,
  " wedding": 5692,
  " voices": 5693,
  " united": 5694,
  " twigs": 5695,
  " trembling": 5696,
  " thrilled": 5697,
  " teased": 5698,
  " tap": 5699,
  " swims": 5700,
  " supposed": 5701,
  " sunrise": 5702,
  " succeeded": 5703,
  " struggling": 5704,
  " sparkle": 5705,
  " soccer": 5706,
  " soil": 5707,
  " snowball": 5708,
  " slice": 5709,
  " situ": 5710,
  " shovels": 5711,
  " shoulders": 5712,
  " shadows": 5713,
  " screams": 5714,
  " scratched": 5715,
  " scattering": 5716,
  " safari": 5717,
  " sense": 5718,
  " rotting": 5719,
  " roaring": 5720,
  " resting": 5721,
  " received": 5722,
  " raining": 5723,
  " quacked": 5724,
  " purred": 5725,
  " printer": 5726,
  " pirates": 5727,
  " pinched": 5728,
  " petted": 5729,
  " pears": 5730,
  " paying": 5731,
  " pastel": 5732,
  " paints": 5733,
  " palm": 5734,
  " outdo": 5735,
  " ornaments": 5736,
  " nails": 5737,
  " muffins": 5738,
  " misses": 5739,
  " mentioned": 5740,
  " melted": 5741,
  " matched": 5742,
  " marble": 5743,
  " mane": 5744,
  " lettuce": 5745,
  " landscape": 5746,
  " lumber": 5747,
  " knocks": 5748,
  " jewels": 5749,
  " inviting": 5750,
  " increased": 5751,
  " investigate": 5752,
  " importance": 5753,
  " hum": 5754,
  " hi": 5755,
  " grandfather": 5756,
  " gust": 5757,
  " folding": 5758,
  " firemen": 5759,
  " fields": 5760,
  " eraser": 5761,
  " effort": 5762,
  " eats": 5763,
  " easier": 5764,
  " escaped": 5765,
  " draws": 5766,
  " dragged": 5767,
  " discovery": 5768,
  " disagree": 5769,
  " direct": 5770,
  " deal": 5771,
  " died": 5772,
  " creation": 5773,
  " created": 5774,
  " crabs": 5775,
  " corners": 5776,
  " comforted": 5777,
  " closely": 5778,
  " chirped": 5779,
  " cheeks": 5780,
  " cough": 5781,
  " bridges": 5782,
  " brus": 5783,
  " blooming": 5784,
  " behaving": 5785,
  " behaved": 5786,
  " beside": 5787,
  " beard": 5788,
  " balancing": 5789,
  " backpack": 5790,
  " bur": 5791,
  " berry": 5792,
  " bang": 5793,
  " awe": 5794,
  " aside": 5795,
  " alien": 5796,
  " admir": 5797,
  " activities": 5798,
  " accompl": 5799,
  " Zero": 5800,
  " Watch": 5801,
  " Violet": 5802,
  " Tweety": 5803,
  " These": 5804,
  " Softy": 5805,
  " Shiny": 5806,
  " Sw": 5807,
  " Pippy": 5808,
  " Our": 5809,
  " Oliver": 5810,
  " Nice": 5811,
  " Marie": 5812,
  " Moppy": 5813,
  " Mina": 5814,
  " Mighty": 5815,
  " Mandy": 5816,
  " Love": 5817,
  " Lilly": 5818,
  " Jackie": 5819,
  " However": 5820,
  " Hatty": 5821,
  " Get": 5822,
  " David": 5823,
  " Dan": 5824,
  " Brush": 5825,
  " Being": 5826,
  " Bubbles": 5827,
  " X": 5828,
  "was": 5829,
  "washer": 5830,
  "vroom": 5831,
  "untie": 5832,
  "une": 5833,
  "uments": 5834,
  "reat": 5835,
  "ranny": 5836,
  "oper": 5837,
  "oming": 5838,
  "occo": 5839,
  "nap": 5840,
  "mother": 5841,
  "mm": 5842,
  "lowers": 5843,
  "leed": 5844,
  "issue": 5845,
  "irm": 5846,
  "ido": 5847,
  "icular": 5848,
  "iar": 5849,
  "ern": 5850,
  "enry": 5851,
  "elle": 5852,
  "eorge": 5853,
  "eff": 5854,
  "cie": 5855,
  "avi": 5856,
  "armony": 5857,
  "arely": 5858,
  "anta": 5859,
  "anted": 5860,
  "amb": 5861,
  "acob": 5862,
  "Sammy": 5863,
  "Sophie": 5864,
  "Ro": 5865,
  "Rex": 5866,
  "Our": 5867,
  "Joey": 5868,
  "Exc": 5869,
  "Benny": 5870,
  "?'": 5871,
  "...\"": 5872,
  "!'": 5873,
  " yawn": 5874,
  " yesterday": 5875,
  " wins": 5876,
  " weeks": 5877,
  " wink": 5878,
  " villagers": 5879,
  " valued": 5880,
  " uns": 5881,
  " twirled": 5882,
  " trucks": 5883,
  " tractor": 5884,
  " tuna": 5885,
  " tissue": 5886,
  " sweeties": 5887,
  " sweat": 5888,
  " stuffed": 5889,
  " stroll": 5890,
  " steep": 5891,
  " stamps": 5892,
  " stung": 5893,
  " stern": 5894,
  " sprinkles": 5895,
  " spoons": 5896,
  " spikes": 5897,
  " sore": 5898,
  " softer": 5899,
  " single": 5900,
  " sighs": 5901,
  " shouting": 5902,
  " shed": 5903,
  " shot": 5904,
  " seems": 5905,
  " seven": 5906,
  " scrub": 5907,
  " scooters": 5908,
  " scooped": 5909,
  " scur": 5910,
  " sav": 5911,
  " sings": 5912,
  " rice": 5913,
  " respon": 5914,
  " recognized": 5915,
  " reads": 5916,
  " reaching": 5917,
  " ranger": 5918,
  " rusty": 5919,
  " prints": 5920,
  " prepared": 5921,
  " proper": 5922,
  " pouring": 5923,
  " possible": 5924,
  " parties": 5925,
  " particular": 5926,
  " ple": 5927,
  " outdoors": 5928,
  " officer": 5929,
  " objects": 5930,
  " neighborhood": 5931,
  " nine": 5932,
  " navy": 5933,
  " monsters": 5934,
  " memories": 5935,
  " measuring": 5936,
  " loving": 5937,
  " learns": 5938,
  " leaning": 5939,
  " knights": 5940,
  " kicks": 5941,
  " isn": 5942,
  " hissed": 5943,
  " heroes": 5944,
  " helpers": 5945,
  " heel": 5946,
  " growling": 5947,
  " grey": 5948,
  " grandmother": 5949,
  " granted": 5950,
  " giggling": 5951,
  " forgiving": 5952,
  " flav": 5953,
  " faced": 5954,
  " expected": 5955,
  " dishwasher": 5956,
  " digging": 5957,
  " darker": 5958,
  " den": 5959,
  " cuts": 5960,
  " cubes": 5961,
  " creating": 5962,
  " creek": 5963,
  " contain": 5964,
  " completely": 5965,
  " colours": 5966,
  " claps": 5967,
  " chewing": 5968,
  " choo": 5969,
  " buzzed": 5970,
  " blocking": 5971,
  " blown": 5972,
  " behavi": 5973,
  " begged": 5974,
  " batteries": 5975,
  " backward": 5976,
  " bleed": 5977,
  " barely": 5978,
  " automobiles": 5979,
  " annoy": 5980,
  " actions": 5981,
  " accomplish": 5982,
  " acted": 5983,
  " Woof": 5984,
  " Sunshine": 5985,
  " Suzie": 5986,
  " Spirit": 5987,
  " Something": 5988,
  " Slowly": 5989,
  " Sunny": 5990,
  " Splash": 5991,
  " Santa": 5992,
  " Print": 5993,
  " Luke": 5994,
  " Kids": 5995,
  " Kanga": 5996,
  " Jojo": 5997,
  " Jumpy": 5998,
  " Its": 5999,
  " Hoppy": 6000,
  " Green": 6001,
  " Gray": 6002,
  " Granny": 6003,
  " Frankie": 6004,
  " Flick": 6005,
  " Friend": 6006,
  " Everyday": 6007,
  " Dezi": 6008,
  " Danny": 6009,
  " Claire": 6010,
  " Caterpillar": 6011,
  " Carl": 6012,
  " By": 6013,
  " Bop": 6014,
  " Baby": 6015,
  " Anne": 6016,
  " Always": 6017,
  " Arm": 6018,
  " Ant": 6019,
  " Adam": 6020,
  " \n ": 6021,
  "zing": 6022,
  "uture": 6023,
  "utter": 6024,
  "urnit": 6025,
  "urniture": 6026,
  "uded": 6027,
  "stri": 6028,
  "strich": 6029,
  "rol": 6030,
  "rup": 6031,
  "rops": 6032,
  "ppers": 6033,
  "osity": 6034,
  "orence": 6035,
  "orman": 6036,
  "ormance": 6037,
  "ookie": 6038,
  "ometimes": 6039,
  "ogo": 6040,
  "ollen": 6041,
  "oid": 6042,
  "no": 6043,
  "njoy": 6044,
  "mies": 6045,
  "lex": 6046,
  "lect": 6047,
  "ler": 6048,
  "isten": 6049,
  "indrops": 6050,
  "inda": 6051,
  "imy": 6052,
  "ifi": 6053,
  "ienn": 6054,
  "ienna": 6055,
  "hythm": 6056,
  "guing": 6057,
  "guard": 6058,
  "found": 6059,
  "enty": 6060,
  "elix": 6061,
  "even": 6062,
  "ef": 6063,
  "awn": 6064,
  "ases": 6065,
  "ados": 6066,
  "adly": 6067,
  "acy": 6068,
  "acation": 6069,
  "abel": 6070,
  "act": 6071,
  "Whee": 6072,
  "Vroom": 6073,
  "Tweet": 6074,
  "Take": 6075,
  "Sometimes": 6076,
  "Quick": 6077,
  "Pinky": 6078,
  "Out": 6079,
  "Oops": 6080,
  "Maggie": 6081,
  "Lizzy": 6082,
  "Jerry": 6083,
  "Hold": 6084,
  "Have": 6085,
  "Goodbye": 6086,
  "Great": 6087,
  "Follow": 6088,
  "Excuse": 6089,
  "During": 6090,
  "Ducky": 6091,
  "Charlie": 6092,
  "Buzz": 6093,
  "Bear": 6094,
  " yelling": 6095,
  " worrying": 6096,
  " wishing": 6097,
  " winner": 6098,
  " wherever": 6099,
  " wears": 6100,
  " warmth": 6101,
  " warmer": 6102,
  " waist": 6103,
  " vanilla": 6104,
  " vet": 6105,
  " vent": 6106,
  " vacation": 6107,
  " unsure": 6108,
  " twists": 6109,
  " tricked": 6110,
  " travell": 6111,
  " touching": 6112,
  " thud": 6113,
  " teaches": 6114,
  " talents": 6115,
  " talent": 6116,
  " tables": 6117,
  " ty": 6118,
  " sweets": 6119,
  " sweaty": 6120,
  " swollen": 6121,
  " surround": 6122,
  " stroked": 6123,
  " stole": 6124,
  " startled": 6125,
  " somebody": 6126,
  " soaked": 6127,
  " slowed": 6128,
  " slug": 6129,
  " slither": 6130,
  " slimy": 6131,
  " shown": 6132,
  " screws": 6133,
  " scaring": 6134,
  " scales": 6135,
  " sailors": 6136,
  " sy": 6137,
  " rockets": 6138,
  " rocking": 6139,
  " ripped": 6140,
  " restored": 6141,
  " refuse": 6142,
  " realize": 6143,
  " reef": 6144,
  " raindrops": 6145,
  " rumble": 6146,
  " risk": 6147,
  " rings": 6148,
  " protecting": 6149,
  " practicing": 6150,
  " pots": 6151,
  " posts": 6152,
  " plenty": 6153,
  " performer": 6154,
  " performance": 6155,
  " perched": 6156,
  " peel": 6157,
  " patiently": 6158,
  " patience": 6159,
  " pad": 6160,
  " owned": 6161,
  " opening": 6162,
  " ostrich": 6163,
  " newfound": 6164,
  " neighbourhood": 6165,
  " muscle": 6166,
  " movies": 6167,
  " mountains": 6168,
  " masks": 6169,
  " marked": 6170,
  " mailed": 6171,
  " mood": 6172,
  " lifeguard": 6173,
  " lemons": 6174,
  " lap": 6175,
  " lamb": 6176,
  " known": 6177,
  " joins": 6178,
  " joking": 6179,
  " items": 6180,
  " itchy": 6181,
  " improved": 6182,
  " hurried": 6183,
  " headed": 6184,
  " haw": 6185,
  " hitting": 6186,
  " guests": 6187,
  " ghosts": 6188,
  " gardener": 6189,
  " flags": 6190,
  " fits": 6191,
  " farthest": 6192,
  " future": 6193,
  " furniture": 6194,
  " firm": 6195,
  " event": 6196,
  " drives": 6197,
  " dragons": 6198,
  " directions": 6199,
  " destination": 6200,
  " desert": 6201,
  " deser": 6202,
  " delivered": 6203,
  " decorated": 6204,
  " cuddled": 6205,
  " crowns": 6206,
  " crept": 6207,
  " continue": 6208,
  " control": 6209,
  " complaining": 6210,
  " complained": 6211,
  " combed": 6212,
  " clowns": 6213,
  " click": 6214,
  " chirping": 6215,
  " chop": 6216,
  " celebrating": 6217,
  " camping": 6218,
  " cor": 6219,
  " cash": 6220,
  " buildings": 6221,
  " bud": 6222,
  " brushes": 6223,
  " brand": 6224,
  " blows": 6225,
  " bleeding": 6226,
  " beginning": 6227,
  " bedtime": 6228,
  " beamed": 6229,
  " baker": 6230,
  " backed": 6231,
  " avocados": 6232,
  " avoid": 6233,
  " arguing": 6234,
  " appreciate": 6235,
  " applauded": 6236,
  " alley": 6237,
  " alright": 6238,
  " airpl": 6239,
  " admiring": 6240,
  " Want": 6241,
  " Unfortunately": 6242,
  " Switch": 6243,
  " Spidey": 6244,
  " Robot": 6245,
  " Rabbit": 6246,
  " Printy": 6247,
  " Pip": 6248,
  " Paws": 6249,
  " Pam": 6250,
  " Oxygen": 6251,
  " Ox": 6252,
  " Out": 6253,
  " Missile": 6254,
  " Leave": 6255,
  " Keep": 6256,
  " Jolly": 6257,
  " Jeff": 6258,
  " Isabella": 6259,
  " Izzy": 6260,
  " Herb": 6261,
  " Hippy": 6262,
  " Henry": 6263,
  " Harry": 6264,
  " Gracie": 6265,
  " Gogo": 6266,
  " George": 6267,
  " Follow": 6268,
  " Florence": 6269,
  " Fifi": 6270,
  " Fido": 6271,
  " Felix": 6272,
  " Enjoy": 6273,
  " Dodo": 6274,
  " Crabby": 6275,
  " Chris": 6276,
  " Cable": 6277,
  " Brian": 6278,
  " Bones": 6279,
  " Birthday": 6280,
  " Albert": 6281,
  " An": 6282,
  " Yes": 6283,
  " 1": 6284,
  "xu": 6285,
  "xury": 6286,
  "wh": 6287,
  "unday": 6288,
  "ucks": 6289,
  "uxury": 6290,
  "thur": 6291,
  "tory": 6292,
  "sequ": 6293,
  "sequence": 6294,
  "sequences": 6295,
  "seek": 6296,
  "screen": 6297,
  "scin": 6298,
  "scinated": 6299,
  "river": 6300,
  "rip": 6301,
  "rett": 6302,
  "reeze": 6303,
  "ree": 6304,
  "rap": 6305,
  "rthur": 6306,
  "quid": 6307,
  "peedy": 6308,
  "please": 6309,
  "oula": 6310,
  "otton": 6311,
  "orter": 6312,
  "oldy": 6313,
  "oke": 6314,
  "ody": 6315,
  "ledge": 6316,
  "lection": 6317,
  "lict": 6318,
  "kend": 6319,
  "its": 6320,
  "ishes": 6321,
  "iles": 6322,
  "iggie": 6323,
  "igail": 6324,
  "iece": 6325,
  "iders": 6326,
  "icha": 6327,
  "ichael": 6328,
  "ices": 6329,
  "iven": 6330,
  "hh": 6331,
  "esome": 6332,
  "entist": 6333,
  "enter": 6334,
  "ellyfish": 6335,
  "ealing": 6336,
  "ekend": 6337,
  "ddler": 6338,
  "ddie": 6339,
  "driver": 6340,
  "cter": 6341,
  "bbled": 6342,
  "bing": 6343,
  "bigail": 6344,
  "bie": 6345,
  "ashed": 6346,
  "araway": 6347,
  "aracter": 6348,
  "arter": 6349,
  "arrin": 6350,
  "aker": 6351,
  "affes": 6352,
  "actly": 6353,
  "achel": 6354,
  "Zoomy": 6355,
  "Uh": 6356,
  "Really": 6357,
  "Prin": 6358,
  "Pete": 6359,
  "Meow": 6360,
  "Milly": 6361,
  "Lina": 6362,
  "Lena": 6363,
  "Jake": 6364,
  "Isabella": 6365,
  "Freddy": 6366,
  "Doggy": 6367,
  "Claire": 6368,
  "Cl": 6369,
  "Big": 6370,
  "Bet": 6371,
  "Bad": 6372,
  "Albert": 6373,
  "Adam": 6374,
  "...": 6375,
  ".'\"": 6376,
  " wobb": 6377,
  " wires": 6378,
  " wipes": 6379,
  " whatever": 6380,
  " wept": 6381,
  " weighed": 6382,
  " weekend": 6383,
  " watering": 6384,
  " warnings": 6385,
  " wakes": 6386,
  " wow": 6387,
  " wounds": 6388,
  " videos": 6389,
  " vict": 6390,
  " usual": 6391,
  " twirling": 6392,
  " twirl": 6393,
  " twinkling": 6394,
  " turning": 6395,
  " tricky": 6396,
  " towels": 6397,
  " toss": 6398,
  " toddler": 6399,
  " tickle": 6400,
  " tallest": 6401,
  " talks": 6402,
  " tails": 6403,
  " syrup": 6404,
  " sweep": 6405,
  " swoop": 6406,
  " switched": 6407,
  " supported": 6408,
  " sunscreen": 6409,
  " struggled": 6410,
  " struggle": 6411,
  " stopping": 6412,
  " staying": 6413,
  " stew": 6414,
  " spreading": 6415,
  " spins": 6416,
  " spices": 6417,
  " smiley": 6418,
  " smallest": 6419,
  " smarter": 6420,
  " slips": 6421,
  " singer": 6422,
  " signs": 6423,
  " shrug": 6424,
  " shelves": 6425,
  " shorter": 6426,
  " seasons": 6427,
  " scrubbed": 6428,
  " screwdriver": 6429,
  " savanna": 6430,
  " sadness": 6431,
  " sway": 6432,
  " roots": 6433,
  " roses": 6434,
  " rewarded": 6435,
  " requested": 6436,
  " repeated": 6437,
  " reflection": 6438,
  " release": 6439,
  " rather": 6440,
  " quarreling": 6441,
  " pumpkins": 6442,
  " protected": 6443,
  " promises": 6444,
  " pretends": 6445,
  " practised": 6446,
  " policeman": 6447,
  " pointy": 6448,
  " pills": 6449,
  " peeking": 6450,
  " peppers": 6451,
  " parked": 6452,
  " pec": 6453,
  " owls": 6454,
  " noses": 6455,
  " messes": 6456,
  " matching": 6457,
  " miles": 6458,
  " loaded": 6459,
  " liquid": 6460,
  " leading": 6461,
  " luxury": 6462,
  " knowledge": 6463,
  " knees": 6464,
  " jackets": 6465,
  " instruments": 6466,
  " insist": 6467,
  " included": 6468,
  " human": 6469,
  " horns": 6470,
  " history": 6471,
  " hides": 6472,
  " hawk": 6473,
  " hallway": 6474,
  " guesses": 6475,
  " greet": 6476,
  " grassy": 6477,
  " gracefully": 6478,
  " goodnight": 6479,
  " goals": 6480,
  " giraffes": 6481,
  " gaze": 6482,
  " frowning": 6483,
  " froze": 6484,
  " forgiven": 6485,
  " forehead": 6486,
  " foods": 6487,
  " focus": 6488,
  " flutter": 6489,
  " flown": 6490,
  " filling": 6491,
  " fairies": 6492,
  " fascinated": 6493,
  " fuel": 6494,
  " faraway": 6495,
  " exactly": 6496,
  " dipped": 6497,
  " decorating": 6498,
  " dads": 6499,
  " dot": 6500,
  " die": 6501,
  " dentist": 6502,
  " curtains": 6503,
  " cracker": 6504,
  " crow": 6505,
  " counts": 6506,
  " conflict": 6507,
  " confident": 6508,
  " consequences": 6509,
  " conn": 6510,
  " cones": 6511,
  " concer": 6512,
  " computers": 6513,
  " completed": 6514,
  " closes": 6515,
  " chefs": 6516,
  " changing": 6517,
  " chases": 6518,
  " character": 6519,
  " changes": 6520,
  " catching": 6521,
  " cashier": 6522,
  " bringing": 6523,
  " bru": 6524,
  " behaviour": 6525,
  " bitten": 6526,
  " awesome": 6527,
  " awake": 6528,
  " airplanes": 6529,
  " agrees": 6530,
  " acts": 6531,
  " Ziggy": 6532,
  " Zane": 6533,
  " Yet": 6534,
  " Yawn": 6535,
  " Without": 6536,
  " Water": 6537,
  " Wally": 6538,
  " Those": 6539,
  " Tuna": 6540,
  " Steve": 6541,
  " Stacy": 6542,
  " Someone": 6543,
  " Sunday": 6544,
  " Speedy": 6545,
  " Sorry": 6546,
  " Sienna": 6547,
  " Robby": 6548,
  " Rocco": 6549,
  " Rhythm": 6550,
  " Pepper": 6551,
  " Peanut": 6552,
  " Pu": 6553,
  " Penny": 6554,
  " Oat": 6555,
  " Nate": 6556,
  " Mon": 6557,
  " Linda": 6558,
  " Lina": 6559,
  " Laser": 6560,
  " Keith": 6561,
  " Jellyfish": 6562,
  " Jacob": 6563,
  " Hana": 6564,
  " Gina": 6565,
  " Friends": 6566,
  " Fishy": 6567,
  " Dr": 6568,
  " Dina": 6569,
  " Cowy": 6570,
  " Cookie": 6571,
  " Buggy": 6572,
  " Behind": 6573,
  " Bye": 6574,
  " Boo": 6575,
  " Bolly": 6576,
  " Bo": 6577,
  " Biggie": 6578,
  " Ava": 6579,
  " Alex": 6580,
  " ouch": 6581,
  " Quick": 6582,
  " 5": 6583,
  "  ": 6584,
  "utch": 6585,
  "umbling": 6586,
  "ulie": 6587,
  "ulf": 6588,
  "uggles": 6589,
  "uffles": 6590,
  "uctantly": 6591,
  "ucksack": 6592,
  "uckled": 6593,
  "uly": 6594,
  "uess": 6595,
  "ths": 6596,
  "though": 6597,
  "shop": 6598,
  "snap": 6599,
  "sm": 6600,
  "rrr": 8042,
  "rat": 6602,
  "ratul": 6603,
  "rance": 6604,
  "pring": 6605,
  "pose": 6606,
  "pite": 6607,
  "pit": 6608,
  "per": 6609,
  "osting": 6610,
  "osen": 6611,
  "oring": 6612,
  "ora": 6613,
  "ongratul": 6614,
  "omas": 6615,
  "ohny": 6616,
  "obody": 6617,
  "nk": 6618,
  "ners": 6619,
  "mates": 6620,
  "lya": 6621,
  "leaf": 6622,
  "long": 6623,
  "lier": 6624,
  "izzie": 6625,
  "ition": 6626,
  "isions": 6627,
  "iri": 6628,
  "iney": 6629,
  "icles": 6630,
  "iao": 6631,
  "house": 6632,
  "giving": 6633,
  "form": 6634,
  "fia": 6635,
  "espite": 6636,
  "ently": 6637,
  "elion": 6638,
  "dies": 6639,
  "cl": 6640,
  "byes": 6641,
  "boom": 6642,
  "ays": 6643,
  "atelyn": 6644,
  "atre": 6645,
  "atches": 6646,
  "asty": 6647,
  "annah": 6648,
  "andelion": 6649,
  "ammed": 6650,
  "almed": 6651,
  "alerious": 6652,
  "aled": 6653,
  "ading": 6654,
  "ah": 6655,
  "Zara": 6656,
  "Yummy": 6657,
  "Violet": 6658,
  "Very": 6659,
  "Uncle": 6660,
  "Teddy": 6661,
  "Steve": 6662,
  "Sofia": 6663,
  "Silly": 6664,
  "Remember": 6665,
  "Paul": 6666,
  "Pat": 6667,
  "Mmm": 6668,
  "Mar": 6669,
  "Luna": 6670,
  "James": 6671,
  "Guess": 6672,
  "Gigi": 6673,
  "Finny": 6674,
  "Frank": 6675,
  "Ew": 6676,
  "Deal": 6677,
  "Baby": 6678,
  "Andy": 6679,
  "Afterwards": 6680,
  "AT": 6681,
  " zips": 6682,
  " youth": 6683,
  " yells": 6684,
  " workshop": 6685,
  " windy": 6686,
  " wiggled": 6687,
  " weren": 6688,
  " weighs": 6689,
  " wasted": 6690,
  " victory": 6691,
  " vibr": 6692,
  " ventured": 6693,
  " type": 6694,
  " tune": 6695,
  " travelling": 6696,
  " traveled": 6697,
  " truly": 6698,
  " toad": 6699,
  " tighter": 6700,
  " tickled": 6701,
  " theatre": 6702,
  " tasting": 6703,
  " tugged": 6704,
  " tipped": 6705,
  " tim": 6706,
  " swimmer": 6707,
  " switches": 6708,
  " swap": 6709,
  " suffered": 6710,
  " strongest": 6711,
  " sternly": 6712,
  " steady": 6713,
  " stays": 6714,
  " stands": 6715,
  " stool": 6716,
  " stitches": 6717,
  " stare": 6718,
  " squeaked": 6719,
  " spraying": 6720,
  " sports": 6721,
  " sparkling": 6722,
  " spiders": 6723,
  " spat": 6724,
  " snowmen": 6725,
  " snatched": 6726,
  " smashed": 6727,
  " slipping": 6728,
  " slammed": 6729,
  " situation": 6730,
  " shooting": 6731,
  " shirts": 6732,
  " scurried": 6733,
  " sandpit": 6734,
  " sank": 6735,
  " sides": 6736,
  " ruin": 6737,
  " rowing": 6738,
  " rivers": 6739,
  " risks": 6740,
  " rested": 6741,
  " response": 6742,
  " respond": 6743,
  " respected": 6744,
  " repeats": 6745,
  " reminding": 6746,
  " reminder": 6747,
  " refre": 6748,
  " realizes": 6749,
  " rainbows": 6750,
  " radishes": 6751,
  " raking": 6752,
  " rucksack": 6753,
  " rising": 6754,
  " purpose": 6755,
  " pupil": 6756,
  " properly": 6757,
  " process": 6758,
  " prayers": 6759,
  " postc": 6760,
  " polishing": 6761,
  " players": 6762,
  " planets": 6763,
  " plates": 6764,
  " passing": 6765,
  " packages": 6766,
  " pins": 6767,
  " outf": 6768,
  " noticing": 6769,
  " noon": 6770,
  " neighbors": 6771,
  " neatly": 6772,
  " neither": 6773,
  " nasty": 6774,
  " mommies": 6775,
  " momma": 6776,
  " mittens": 6777,
  " minds": 6778,
  " minding": 6779,
  " minded": 6780,
  " meaning": 6781,
  " matters": 6782,
  " marching": 6783,
  " mailing": 6784,
  " machines": 6785,
  " maker": 6786,
  " loudest": 6787,
  " loose": 6788,
  " lizards": 6789,
  " knots": 6790,
  " knocking": 6791,
  " keys": 6792,
  " homework": 6793,
  " hesitation": 6794,
  " hesit": 6795,
  " healed": 6796,
  " handsome": 6797,
  " goodbyes": 6798,
  " glowed": 6799,
  " grip": 6800,
  " frosting": 6801,
  " followers": 6802,
  " fishing": 6803,
  " fills": 6804,
  " figures": 6805,
  " fears": 6806,
  " fact": 6807,
  " fu": 6808,
  " examined": 6809,
  " everybody": 6810,
  " erase": 6811,
  " entrance": 6812,
  " elbow": 6813,
  " earlier": 6814,
  " drifted": 6815,
  " dolphins": 6816,
  " diving": 6817,
  " delivering": 6818,
  " decisions": 6819,
  " decision": 6820,
  " deed": 6821,
  " daring": 6822,
  " dar": 6823,
  " dandelion": 6824,
  " curiously": 6825,
  " curiosity": 6826,
  " cuddly": 6827,
  " craft": 6828,
  " covers": 6829,
  " comm": 6830,
  " cobra": 6831,
  " clover": 6832,
  " clam": 6833,
  " choosing": 6834,
  " chuckled": 6835,
  " chosen": 6836,
  " congratul": 6837,
  " calmed": 6838,
  " burying": 6839,
  " burning": 6840,
  " bumps": 6841,
  " bubb": 6842,
  " bruises": 6843,
  " bowls": 6844,
  " bowed": 6845,
  " boom": 6846,
  " bodies": 6847,
  " believing": 6848,
  " becoming": 6849,
  " belly": 6850,
  " baths": 6851,
  " basement": 6852,
  " bandages": 6853,
  " banged": 6854,
  " backwards": 6855,
  " area": 6856,
  " annoyed": 6857,
  " amused": 6858,
  " afterwards": 6859,
  " adventurers": 6860,
  " adventurer": 6861,
  " accomplishment": 6862,
  " abil": 6863,
  " achie": 6864,
  " Zara": 6865,
  " Xiao": 6866,
  " Wor": 6867,
  " Up": 6868,
  " Thanks": 6869,
  " Try": 6870,
  " Ted": 6871,
  " String": 6872,
  " Stella": 6873,
  " Stealing": 6874,
  " Squeeze": 6875,
  " Spud": 6876,
  " Snuggles": 6877,
  " Sylvia": 6878,
  " Summer": 6879,
  " Seth": 6880,
  " Serious": 6881,
  " Sadly": 6882,
  " Ruffles": 6883,
  " Riri": 6884,
  " Ria": 6885,
  " Puppy": 6886,
  " Princess": 6887,
  " Pippa": 6888,
  " Pur": 6889,
  " Pl": 6890,
  " Piney": 6891,
  " Nothing": 6892,
  " Maya": 6893,
  " Mabel": 6894,
  " Liz": 6895,
  " Liam": 6896,
  " Larry": 6897,
  " June": 6898,
  " Jilly": 6899,
  " Hung": 6900,
  " Hold": 6901,
  " Harmony": 6902,
  " Goodbye": 6903,
  " Gulp": 6904,
  " Goldy": 6905,
  " Flora": 6906,
  " First": 6907,
  " Dogs": 6908,
  " Crab": 6909,
  " Cari": 6910,
  " Brad": 6911,
  " Bobbie": 6912,
  " Bert": 6913,
  " Bee": 6914,
  "â": 6915,
  "yond": 6916,
  "what": 6917,
  "vin": 6918,
  "utty": 6919,
  "usted": 6920,
  "usic": 6921,
  "unning": 6922,
  "umbs": 6923,
  "umm": 6924,
  "ummaged": 6925,
  "ument": 6926,
  "ulfill": 6927,
  "uits": 6928,
  "ugar": 6929,
  "uctions": 6930,
  "uckily": 6931,
  "ubu": 6932,
  "ues": 6933,
  "ua": 6934,
  "toed": 6935,
  "ther": 6936,
  "the": 6937,
  "step": 6938,
  "ssess": 6939,
  "ship": 6940,
  "reverse": 6941,
  "repe": 6942,
  "repeat": 6943,
  "rust": 6944,
  "ron": 6945,
  "rkins": 6946,
  "rink": 6947,
  "packed": 6948,
  "pare": 6949,
  "ordan": 6950,
  "orse": 6951,
  "oray": 6952,
  "oosh": 6953,
  "onghead": 6954,
  "omp": 6955,
  "obey": 6956,
  "ossible": 6957,
  "ole": 6958,
  "mbers": 6959,
  "mered": 6960,
  "manda": 6961,
  "lders": 6962,
  "lunt": 6963,
  "joyed": 6964,
  "jam": 6965,
  "jamas": 6966,
  "ivity": 6967,
  "itely": 6968,
  "ission": 6969,
  "isty": 6970,
  "iously": 6971,
  "indy": 6972,
  "iky": 6973,
  "igning": 6974,
  "ieve": 6975,
  "idened": 6976,
  "idence": 6977,
  "icking": 6978,
  "ibbit": 6979,
  "hausted": 6980,
  "fficer": 6981,
  "erald": 6982,
  "ept": 6983,
  "elon": 6984,
  "elieve": 6985,
  "ein": 6986,
  "eed": 6987,
  "ean": 6988,
  "dding": 6989,
  "cutter": 6990,
  "ctar": 6991,
  "chievous": 6992,
  "ching": 6993,
  "chieved": 6994,
  "crow": 6995,
  "cc": 6996,
  "ccas": 6997,
  "brush": 6998,
  "bbing": 6999,
  "but": 7000,
  "bles": 7001,
  "bbed": 7002,
  "assport": 7003,
  "applaud": 7004,
  "antha": 7005,
  "andas": 7006,
  "ans": 7007,
  "amie": 7008,
  "amboo": 7009,
  "aloo": 7010,
  "aids": 7011,
  "acing": 7012,
  "Zoom": 7013,
  "Unfortunately": 7014,
  "Tweety": 7015,
  "Toto": 7016,
  "Tiny": 7017,
  "Spike": 7018,
  "Sharing": 7019,
  "Sylvia": 7020,
  "Sun": 7021,
  "Some": 7022,
  "Run": 7023,
  "Ribbit": 7024,
  "Poula": 7025,
  "Poppy": 7026,
  "Pandy": 7027,
  "Pam": 7028,
  "Or": 7029,
  "Ollie": 7030,
  "Mrs": 7031,
  "Meg": 7032,
  "Mittens": 7033,
  "Mine": 7034,
  "Mandy": 7035,
  "Leave": 7036,
  "Kiki": 7037,
  "Katie": 7038,
  "Jacky": 7039,
  "Jump": 7040,
  "Johny": 7041,
  "Jessie": 7042,
  "Janie": 7043,
  "Honey": 7044,
  "Grace": 7045,
  "Fro": 7046,
  "For": 7047,
  "First": 7048,
  "Ellie": 7049,
  "Eat": 7050,
  "Dolly": 7051,
  "Dear": 7052,
  "Cat": 7053,
  "Buzzy": 7054,
  "Betty": 7055,
  "Behind": 7056,
  "Brian": 7057,
  "Br": 7058,
  "Boys": 7059,
  "Bill": 7060,
  "Barry": 7061,
  "Auntie": 7062,
  "!â.": 7063,
  " younger": 7064,
  " wrapping": 7065,
  " wrist": 7066,
  " woodcutter": 7067,
  " wobbly": 7068,
  " wobbled": 7069,
  " wiser": 7070,
  " wisely": 7071,
  " whoosh": 7072,
  " webs": 7073,
  " weeds": 7074,
  " widened": 7075,
  " volunt": 7076,
  " visiting": 7077,
  " vibrant": 7078,
  " usually": 7079,
  " unpacked": 7080,
  " unf": 7081,
  " und": 7082,
  " twisty": 7083,
  " troubles": 7084,
  " treehouse": 7085,
  " travels": 7086,
  " towns": 7087,
  " touches": 7088,
  " toolbox": 7089,
  " tires": 7090,
  " timer": 7091,
  " thieves": 7092,
  " tested": 7093,
  " tearing": 7094,
  " teamwork": 7095,
  " teapot": 7096,
  " tasks": 7097,
  " talented": 7098,
  " tablet": 7099,
  " tapped": 7100,
  " swooped": 7101,
  " swept": 7102,
  " surroundings": 7103,
  " surfboard": 7104,
  " supplies": 7105,
  " styles": 7106,
  " streets": 7107,
  " struck": 7108,
  " stomp": 7109,
  " staring": 7110,
  " stains": 7111,
  " stacking": 7112,
  " stumble": 7113,
  " stings": 7114,
  " stem": 7115,
  " squeak": 7116,
  " squishy": 7117,
  " spits": 7118,
  " spills": 7119,
  " sparkles": 7120,
  " spout": 7121,
  " spiky": 7122,
  " soaring": 7123,
  " soaking": 7124,
  " sniffs": 7125,
  " snug": 7126,
  " snorted": 7127,
  " situations": 7128,
  " sickness": 7129,
  " shivered": 7130,
  " shines": 7131,
  " shock": 7132,
  " shady": 7133,
  " sending": 7134,
  " secrets": 7135,
  " sadder": 7136,
  " sale": 7137,
  " robin": 7138,
  " replaced": 7139,
  " remembering": 7140,
  " reluctantly": 7141,
  " rummaged": 7142,
  " rider": 7143,
  " rid": 7144,
  " queens": 7145,
  " quacking": 7146,
  " purrs": 7147,
  " pudding": 7148,
  " prettiest": 7149,
  " presses": 7150,
  " prove": 7151,
  " powers": 7152,
  " possess": 7153,
  " pleaded": 7154,
  " plans": 7155,
  " plum": 7156,
  " plain": 7157,
  " pigeons": 7158,
  " permission": 7159,
  " performing": 7160,
  " pedal": 7161,
  " pecked": 7162,
  " pearls": 7163,
  " peered": 7164,
  " paths": 7165,
  " patted": 7166,
  " paintings": 7167,
  " pajamas": 7168,
  " piled": 7169,
  " pause": 7170,
  " pandas": 7171,
  " owners": 7172,
  " overjoyed": 7173,
  " outfits": 7174,
  " occas": 7175,
  " nodding": 7176,
  " nervously": 7177,
  " nectar": 7178,
  " niece": 7179,
  " months": 7180,
  " mischievous": 7181,
  " messed": 7182,
  " members": 7183,
  " marker": 7184,
  " moo": 7185,
  " lungs": 7186,
  " lollipops": 7187,
  " listens": 7188,
  " lessons": 7189,
  " lending": 7190,
  " least": 7191,
  " leap": 7192,
  " lump": 7193,
  " joked": 7194,
  " intr": 7195,
  " instructions": 7196,
  " indeed": 7197,
  " impossible": 7198,
  " imagining": 7199,
  " hugging": 7200,
  " hotter": 7201,
  " health": 7202,
  " heading": 7203,
  " guide": 7204,
  " growls": 7205,
  " groan": 7206,
  " grandpare": 7207,
  " gears": 7208,
  " gazing": 7209,
  " gasps": 7210,
  " gross": 7211,
  " goo": 7212,
  " fuzzy": 7213,
  " freed": 7214,
  " foxes": 7215,
  " form": 7216,
  " force": 7217,
  " foggy": 7218,
  " flowing": 7219,
  " flavors": 7220,
  " flavor": 7221,
  " flip": 7222,
  " flapping": 7223,
  " flames": 7224,
  " firmly": 7225,
  " figured": 7226,
  " familiar": 7227,
  " fulfill": 7228,
  " exercises": 7229,
  " exhausted": 7230,
  " everyday": 7231,
  " enjoyable": 7232,
  " emerald": 7233,
  " edges": 7234,
  " elders": 7235,
  " ease": 7236,
  " dusty": 7237,
  " drip": 7238,
  " dod": 7239,
  " disobey": 7240,
  " differently": 7241,
  " deserve": 7242,
  " demanding": 7243,
  " def": 7244,
  " darkness": 7245,
  " dumb": 7246,
  " ditch": 7247,
  " cuddle": 7248,
  " creativity": 7249,
  " crafts": 7250,
  " crackers": 7251,
  " cracked": 7252,
  " crutch": 7253,
  " crumbs": 7254,
  " correct": 7255,
  " concerned": 7256,
  " coloring": 7257,
  " cloudy": 7258,
  " clearing": 7259,
  " classmates": 7260,
  " clip": 7261,
  " chopped": 7262,
  " cheering": 7263,
  " characters": 7264,
  " cartoons": 7265,
  " center": 7266,
  " cause": 7267,
  " burst": 7268,
  " bulbs": 7269,
  " breathing": 7270,
  " bravery": 7271,
  " bottles": 7272,
  " booth": 7273,
  " blast": 7274,
  " birdie": 7275,
  " beloved": 7276,
  " beyond": 7277,
  " bathing": 7278,
  " baskets": 7279,
  " bands": 7280,
  " badge": 7281,
  " bully": 7282,
  " bamboo": 7283,
  " ages": 7284,
  " age": 7285,
  " activity": 7286,
  " acting": 7287,
  " achieve": 7288,
  " achieved": 7289,
  " Which": 7290,
  " Uncle": 7291,
  " Use": 7292,
  " Thomas": 7293,
  " Turtle": 7294,
  " Toys": 7295,
  " Terry": 7296,
  " Sparkle": 7297,
  " Shell": 7298,
  " Show": 7299,
  " Samuel": 7300,
  " Sugar": 7301,
  " Spring": 7302,
  " Say": 7303,
  " Robert": 7304,
  " Rudy": 7305,
  " Rich": 7306,
  " Purrkins": 7307,
  " Pea": 7308,
  " Put": 7309,
  " Piggy": 7310,
  " Passport": 7311,
  " Olly": 7312,
  " Okay": 7313,
  " Officer": 7314,
  " Noelle": 7315,
  " Nobody": 7316,
  " Nick": 7317,
  " Monster": 7318,
  " Mole": 7319,
  " Music": 7320,
  " Moon": 7321,
  " Michael": 7322,
  " Like": 7323,
  " Lena": 7324,
  " Land": 7325,
  " Kirsty": 7326,
  " Kelly": 7327,
  " Katelyn": 7328,
  " Isn": 7329,
  " Helping": 7330,
  " Hannah": 7331,
  " Gary": 7332,
  " Ed": 7333,
  " Deal": 7334,
  " Chicky": 7335,
  " Cotton": 7336,
  " Cally": 7337,
  " Brother": 7338,
  " Bubu": 7339,
  " Because": 7340,
  " Band": 7341,
  " Baloo": 7342,
  " Auntie": 7343,
  " Arthur": 7344,
  " Abigail": 7345,
  " Q": 7346,
  " \n\n": 7347,
  "years": 7348,
  "woof": 7349,
  "versed": 7350,
  "vered": 7351,
  "veral": 7352,
  "vil": 7353,
  "ution": 7354,
  "unged": 7355,
  "umped": 7356,
  "ueen": 7357,
  "uri": 7358,
  "te": 7359,
  "sted": 7360,
  "spired": 7361,
  "shall": 7362,
  "seed": 7363,
  "sible": 7364,
  "shing": 7365,
  "robes": 7366,
  "rier": 7367,
  "retty": 7368,
  "resser": 7369,
  "raped": 7370,
  "rucky": 7371,
  "rily": 7372,
  "rayon": 7373,
  "rayons": 7374,
  "quirrel": 7375,
  "pple": 7376,
  "ppies": 7377,
  "phan": 7378,
  "phanage": 7379,
  "pen": 7380,
  "ounced": 7381,
  "ooper": 7382,
  "ooks": 7383,
  "onge": 7384,
  "onde": 7385,
  "ompy": 7386,
  "omer": 7387,
  "ments": 7388,
  "moo": 7389,
  "lings": 7390,
  "iversity": 7391,
  "ironment": 7392,
  "irdresser": 7393,
  "ippin": 7394,
  "inkle": 7395,
  "inier": 7396,
  "inct": 7397,
  "imply": 7398,
  "ights": 7399,
  "iggled": 7400,
  "igued": 7401,
  "ifty": 7402,
  "ief": 7403,
  "ics": 7404,
  "icip": 7405,
  "iblings": 7406,
  "iren": 7407,
  "herry": 7408,
  "hole": 7409,
  "hog": 7410,
  "hive": 7411,
  "hi": 7412,
  "guess": 7413,
  "getic": 7414,
  "gn": 7415,
  "gers": 7416,
  "feated": 7417,
  "exit": 7418,
  "ets": 7419,
  "etail": 7420,
  "etails": 7421,
  "esmer": 7422,
  "ering": 7423,
  "eam": 7424,
  "daughter": 7425,
  "ckless": 7426,
  "cused": 7427,
  "cre": 7428,
  "cake": 7429,
  "bug": 7430,
  "bs": 7431,
  "bric": 7432,
  "attered": 7433,
  "ateri": 7434,
  "atted": 7435,
  "att": 7436,
  "asped": 7437,
  "arney": 7438,
  "arned": 7439,
  "arest": 7440,
  "arty": 7441,
  "arth": 7442,
  "ars": 7443,
  "arf": 7444,
  "ansform": 7445,
  "anet": 7446,
  "amedics": 7447,
  "ambled": 7448,
  "amage": 7449,
  "agle": 7450,
  "ades": 7451,
  "ably": 7452,
  "aven": 7453,
  "Which": 7454,
  "Wiggly": 7455,
  "Want": 7456,
  "Those": 7457,
  "Tina": 7458,
  "Tie": 7459,
  "Ted": 7460,
  "Samuel": 7461,
  "Susie": 7462,
  "Snap": 7463,
  "Slow": 7464,
  "Seven": 7465,
  "Robert": 7466,
  "Roar": 7467,
  "Rose": 7468,
  "Rock": 7469,
  "Rachel": 7470,
  "Quack": 7471,
  "Print": 7472,
  "Put": 7473,
  "Push": 7474,
  "Polly": 7475,
  "Pippin": 7476,
  "Pip": 7477,
  "Pe": 7478,
  "Oxygen": 7479,
  "Oat": 7480,
  "Nothing": 7481,
  "Noelle": 7482,
  "Nick": 7483,
  "Near": 7484,
  "Miss": 7485,
  "Mint": 7486,
  "Mila": 7487,
  "Lulu": 7488,
  "Luckily": 7489,
  "Like": 7490,
  "Kirsty": 7491,
  "Kim": 7492,
  "Ke": 7493,
  "Kate": 7494,
  "Jo": 7495,
  "Jess": 7496,
  "Jen": 7497,
  "However": 7498,
  "Hearing": 7499,
  "Ho": 7500,
  "Harmony": 7501,
  "HAT": 7502,
  "Froggy": 7503,
  "Four": 7504,
  "Fine": 7505,
  "Even": 7506,
  "Eddie": 7507,
  "Davey": 7508,
  "Drink": 7509,
  "Dezi": 7510,
  "David": 7511,
  "Darrin": 7512,
  "Danny": 7513,
  "Clara": 7514,
  "Chris": 7515,
  "Chloe": 7516,
  "Chirpy": 7517,
  "Cindy": 7518,
  "Catch": 7519,
  "Birdy": 7520,
  "By": 7521,
  "Bug": 7522,
  "Bring": 7523,
  "Brett": 7524,
  "Bow": 7525,
  "Bolly": 7526,
  "Binky": 7527,
  "Bally": 7528,
  "Annie": 7529,
  "Alya": 7530,
  "Ahh": 7531,
  "AN": 7532,
  ",'": 7533,
  " zooms": 7534,
  " yawning": 7535,
  " yum": 7536,
  " yelp": 7537,
  " writes": 7538,
  " wriggled": 7539,
  " worries": 7540,
  " woken": 7541,
  " winked": 7542,
  " willing": 7543,
  " whose": 7544,
  " whispers": 7545,
  " whines": 7546,
  " weed": 7547,
  " wasting": 7548,
  " waste": 7549,
  " waded": 7550,
  " wound": 7551,
  " wider": 7552,
  " wicked": 7553,
  " visitor": 7554,
  " villager": 7555,
  " urging": 7556,
  " untw": 7557,
  " untangle": 7558,
  " unw": 7559,
  " twinkled": 7560,
  " twinkle": 7561,
  " twice": 7562,
  " tunnels": 7563,
  " trusting": 7564,
  " trumpets": 7565,
  " traveling": 7566,
  " transform": 7567,
  " trading": 7568,
  " toward": 7569,
  " tossing": 7570,
  " tops": 7571,
  " toilets": 7572,
  " tossed": 7573,
  " tiptoed": 7574,
  " third": 7575,
  " temper": 7576,
  " teaspoons": 7577,
  " tanks": 7578,
  " tumbling": 7579,
  " tang": 7580,
  " swayed": 7581,
  " surrounded": 7582,
  " superheroes": 7583,
  " sunflowers": 7584,
  " sunlight": 7585,
  " stroller": 7586,
  " strolled": 7587,
  " stroke": 7588,
  " stomachs": 7589,
  " stepping": 7590,
  " starfish": 7591,
  " stamped": 7592,
  " stunning": 7593,
  " stall": 7594,
  " squealed": 7595,
  " squished": 7596,
  " springing": 7597,
  " spilling": 7598,
  " speaking": 7599,
  " spaces": 7600,
  " sponge": 7601,
  " source": 7602,
  " solution": 7603,
  " sobbed": 7604,
  " snuggly": 7605,
  " snakes": 7606,
  " snuck": 7607,
  " smelling": 7608,
  " smash": 7609,
  " slithered": 7610,
  " slower": 7611,
  " sinks": 7612,
  " silent": 7613,
  " shrank": 7614,
  " shops": 7615,
  " shinier": 7616,
  " shall": 7617,
  " sewing": 7618,
  " sewed": 7619,
  " separated": 7620,
  " seesaw": 7621,
  " seeking": 7622,
  " several": 7623,
  " scurry": 7624,
  " scratches": 7625,
  " scrambled": 7626,
  " scarecrow": 7627,
  " scarves": 7628,
  " scraped": 7629,
  " satis": 7630,
  " salty": 7631,
  " sails": 7632,
  " safer": 7633,
  " siren": 7634,
  " sinking": 7635,
  " simply": 7636,
  " sill": 7637,
  " siblings": 7638,
  " sens": 7639,
  " ruining": 7640,
  " robber": 7641,
  " roars": 7642,
  " roamed": 7643,
  " ribbons": 7644,
  " rib": 7645,
  " returning": 7646,
  " responded": 7647,
  " responsible": 7648,
  " reply": 7649,
  " reminds": 7650,
  " relief": 7651,
  " regretted": 7652,
  " refreshed": 7653,
  " recorder": 7654,
  " recommended": 7655,
  " realizing": 7656,
  " reality": 7657,
  " reversed": 7658,
  " reeds": 7659,
  " reckless": 7660,
  " reass": 7661,
  " reapp": 7662,
  " rainy": 7663,
  " rains": 7664,
  " rails": 7665,
  " races": 7666,
  " raked": 7667,
  " rays": 7668,
  " purr": 7669,
  " puppies": 7670,
  " pruning": 7671,
  " protein": 7672,
  " probably": 7673,
  " presented": 7674,
  " postcards": 7675,
  " possession": 7676,
  " popsicles": 7677,
  " politely": 7678,
  " polished": 7679,
  " pokes": 7680,
  " pockets": 7681,
  " poles": 7682,
  " pleasure": 7683,
  " plucked": 7684,
  " pinching": 7685,
  " pillows": 7686,
  " picnics": 7687,
  " petal": 7688,
  " persistence": 7689,
  " peaches": 7690,
  " patches": 7691,
  " particularly": 7692,
  " parted": 7693,
  " paramedics": 7694,
  " panicked": 7695,
  " pairs": 7696,
  " paintbrush": 7697,
  " padd": 7698,
  " packet": 7699,
  " pounds": 7700,
  " otters": 7701,
  " orphanage": 7702,
  " opinions": 7703,
  " offering": 7704,
  " occasions": 7705,
  " observing": 7706,
  " newspapers": 7707,
  " nearly": 7708,
  " nearest": 7709,
  " ni": 7710,
  " mustered": 7711,
  " moonlight": 7712,
  " models": 7713,
  " minty": 7714,
  " meows": 7715,
  " mayor": 7716,
  " massages": 7717,
  " munch": 7718,
  " mesmer": 7719,
  " materi": 7720,
  " main": 7721,
  " lunchtime": 7722,
  " lowered": 7723,
  " lighter": 7724,
  " lifting": 7725,
  " licking": 7726,
  " lies": 7727,
  " leader": 7728,
  " landing": 7729,
  " ladybug": 7730,
  " launch": 7731,
  " lower": 7732,
  " lent": 7733,
  " keyhole": 7734,
  " kitty": 7735,
  " journeys": 7736,
  " jobs": 7737,
  " itches": 7738,
  " invites": 7739,
  " intrigued": 7740,
  " interested": 7741,
  " inspired": 7742,
  " hunters": 7743,
  " however": 7744,
  " hopeful": 7745,
  " honesty": 7746,
  " honor": 7747,
  " honked": 7748,
  " honk": 7749,
  " host": 7750,
  " hissing": 7751,
  " hider": 7752,
  " hesitated": 7753,
  " helmets": 7754,
  " helicopters": 7755,
  " hedgehog": 7756,
  " hearing": 7757,
  " heaven": 7758,
  " hamster": 7759,
  " hammered": 7760,
  " hairdresser": 7761,
  " hood": 7762,
  " hint": 7763,
  " guilt": 7764,
  " guided": 7765,
  " groups": 7766,
  " groceries": 7767,
  " groaned": 7768,
  " grandparent": 7769,
  " grabbing": 7770,
  " gobbled": 7771,
  " glued": 7772,
  " glim": 7773,
  " glared": 7774,
  " giants": 7775,
  " gulp": 7776,
  " friendships": 7777,
  " flips": 7778,
  " fins": 7779,
  " finishing": 7780,
  " fever": 7781,
  " fault": 7782,
  " fabric": 7783,
  " fired": 7784,
  " fifty": 7785,
  " explorer": 7786,
  " experiences": 7787,
  " environment": 7788,
  " enthusiasm": 7789,
  " entire": 7790,
  " engineer": 7791,
  " engines": 7792,
  " energetic": 7793,
  " ends": 7794,
  " encouragement": 7795,
  " emerged": 7796,
  " embra": 7797,
  " efforts": 7798,
  " evil": 7799,
  " duckling": 7800,
  " drying": 7801,
  " drums": 7802,
  " dropping": 7803,
  " drivers": 7804,
  " dripping": 7805,
  " drift": 7806,
  " dries": 7807,
  " dresser": 7808,
  " dodged": 7809,
  " doomed": 7810,
  " displayed": 7811,
  " discovering": 7812,
  " dinosaurs": 7813,
  " dived": 7814,
  " determination": 7815,
  " destroying": 7816,
  " designed": 7817,
  " designing": 7818,
  " desc": 7819,
  " defeated": 7820,
  " darling": 7821,
  " dances": 7822,
  " dangers": 7823,
  " dumped": 7824,
  " dips": 7825,
  " details": 7826,
  " damage": 7827,
  " da": 7828,
  " curly": 7829,
  " crossing": 7830,
  " cops": 7831,
  " connected": 7832,
  " connect": 7833,
  " confidence": 7834,
  " convin": 7835,
  " competition": 7836,
  " compete": 7837,
  " company": 7838,
  " comforting": 7839,
  " coloured": 7840,
  " collap": 7841,
  " coldness": 7842,
  " cleaner": 7843,
  " clasped": 7844,
  " circus": 7845,
  " choices": 7846,
  " chewy": 7847,
  " checkout": 7848,
  " cheat": 7849,
  " cheaper": 7850,
  " chill": 7851,
  " charge": 7852,
  " cells": 7853,
  " cauliflowers": 7854,
  " caterpillars": 7855,
  " cooper": 7856,
  " bushy": 7857,
  " burrow": 7858,
  " bubbling": 7859,
  " brightest": 7860,
  " breathed": 7861,
  " bracelets": 7862,
  " braver": 7863,
  " braid": 7864,
  " bounces": 7865,
  " bothering": 7866,
  " bothered": 7867,
  " booming": 7868,
  " boiling": 7869,
  " boil": 7870,
  " bobbing": 7871,
  " blonde": 7872,
  " blocked": 7873,
  " blink": 7874,
  " birdseed": 7875,
  " bellies": 7876,
  " beehive": 7877,
  " beautif": 7878,
  " beast": 7879,
  " bathrobes": 7880,
  " backs": 7881,
  " background": 7882,
  " bunch": 7883,
  " bumpy": 7884,
  " born": 7885,
  " awful": 7886,
  " arrive": 7887,
  " arf": 7888,
  " applauding": 7889,
  " apology": 7890,
  " apologize": 7891,
  " apologised": 7892,
  " anticip": 7893,
  " annoying": 7894,
  " announced": 7895,
  " angrily": 7896,
  " ache": 7897,
  " abilities": 7898,
  " ast": 7899,
  " aimed": 7900,
  " aim": 7901,
  " aff": 7902,
  " Working": 7903,
  " William": 7904,
  " Wo": 7905,
  " Whee": 7906,
  " Well": 7907,
  " War": 7908,
  " Todd": 7909,
  " Thanksgiving": 7910,
  " Tangle": 7911,
  " Take": 7912,
  " Steam": 7913,
  " Squirrel": 7914,
  " Sister": 7915,
  " Rachel": 7916,
  " Queen": 7917,
  " Planet": 7918,
  " Poke": 7919,
  " Patch": 7920,
  " Party": 7921,
  " Orange": 7922,
  " Only": 7923,
  " Ouch": 7924,
  " Old": 7925,
  " Nutty": 7926,
  " NO": 7927,
  " Marshall": 7928,
  " Mila": 7929,
  " Mike": 7930,
  " Malerious": 7931,
  " Lilah": 7932,
  " Longhead": 7933,
  " Lizzie": 7934,
  " Listen": 7935,
  " Lion": 7936,
  " Julie": 7937,
  " Jamie": 7938,
  " Inst": 7939,
  " Horse": 7940,
  " Holly": 7941,
  " Fun": 7942,
  " Ex": 7943,
  " Eddie": 7944,
  " Earth": 7945,
  " Eagle": 7946,
  " Did": 7947,
  " Despite": 7948,
  " Darrin": 7949,
  " Coal": 7950,
  " Clim": 7951,
  " Compy": 7952,
  " Cle": 7953,
  " Cherry": 7954,
  " Brett": 7955,
  " Bark": 7956,
  " Ash": 7957,
  " Annie": 7958,
  " Although": 7959,
  " Along": 7960,
  " Apple": 7961,
  " ''": 7962,
  " icing": 7963,
  " 2": 7964,
  "zzled": 7965,
  "zip": 7966,
  "zily": 7967,
  "ysters": 7968,
  "you": 7969,
  "who": 7970,
  "weed": 7971,
  "winkle": 7972,
  "well": 7973,
  "vers": 7974,
  "vided": 7975,
  "vast": 7976,
  "vastated": 7977,
  "utomobiles": 7978,
  "utiously": 7979,
  "utely": 7980,
  "ustomer": 7981,
  "ushy": 7982,
  "usp": 7983,
  "uspic": 7984,
  "using": 7985,
  "usan": 7986,
  "usages": 7987,
  "urious": 7988,
  "urry": 7989,
  "urrender": 7990,
  "undred": 7991,
  "university": 7992,
  "united": 7993,
  "umpled": 7994,
  "ummies": 7995,
  "umed": 7996,
  "uliar": 7997,
  "uffed": 7998,
  "uction": 7999,
  "uced": 8000,
  "ubbing": 8001,
  "toes": 8002,
  "tery": 8003,
  "ts": 8004,
  "tment": 8005,
  "tle": 8006,
  "then": 8007,
  "tally": 8008,
  "tage": 8009,
  "steps": 8010,
  "strated": 8011,
  "spicy": 8012,
  "sol": 8013,
  "solutely": 8014,
  "shua": 8015,
  "shr": 8016,
  "shrinky": 8017,
  "shoot": 8018,
  "shaped": 8019,
  "shadow": 8020,
  "scre": 8021,
  "screw": 8022,
  "sider": 8023,
  "sers": 8024,
  "send": 8025,
  "saw": 8026,
  "rowave": 8027,
  "ronaut": 8028,
  "romise": 8029,
  "roken": 8030,
  "rocodile": 8031,
  "roccoli": 8032,
  "roat": 8033,
  "rior": 8034,
  "return": 8035,
  "retching": 8036,
  "rent": 8037,
  "reet": 8038,
  "rase": 8039,
  "rabs": 8040,
  "ruits": 8041,
  "rings": 8043,
  "quered": 8044,
  "prom": 8045,
  "promise": 8046,
  "print": 8047,
  "ppos": 8048,
  "pposite": 8049,
  "parable": 8050,
  "put": 8051,
  "pow": 8052,
  "po": 8053,
  "poison": 8054,
  "piece": 8055,
  "phere": 8056,
  "pan": 8057,
  "ownie": 8058,
  "outines": 8059,
  "outed": 8060,
  "ountered": 8061,
  "oughed": 8062,
  "ouches": 8063,
  "ottage": 8064,
  "otion": 8065,
  "othing": 8066,
  "osure": 8067,
  "osphere": 8068,
  "ortunately": 8069,
  "orever": 8070,
  "ords": 8071,
  "orant": 8072,
  "ooves": 8073,
  "onstrated": 8074,
  "onn": 8075,
  "onna": 8076,
  "oline": 8077,
  "oever": 8078,
  "oving": 8079,
  "oscope": 8080,
  "opped": 8081,
  "oco": 8082,
  "oah": 8083,
  "ntil": 8084,
  "new": 8085,
  "newed": 8086,
  "neath": 8087,
  "nc": 8088,
  "mosphere": 8089,
  "melon": 8090,
  "meal": 8091,
  "mar": 8092,
  "marriage": 8093,
  "llin": 8094,
  "lee": 8095,
  "losure": 8096,
  "line": 8097,
  "lide": 8098,
  "lay": 8099,
  "lap": 8100,
  "keeping": 8101,
  "ks": 8102,
  "kle": 8103,
  "joiced": 8104,
  "jured": 8105,
  "jest": 8106,
  "izon": 8107,
  "ives": 8108,
  "ively": 8109,
  "ittered": 8110,
  "itted": 8111,
  "itude": 8112,
  "istening": 8113,
  "ists": 8114,
  "istling": 8115,
  "isies": 8116,
  "irce": 8117,
  "irac": 8118,
  "ippers": 8119,
  "ippee": 8120,
  "inema": 8121,
  "inctively": 8122,
  "inner": 8123,
  "inching": 8124,
  "imals": 8125,
  "imits": 8126,
  "ildren": 8127,
  "iliar": 8128,
  "icky": 8129,
  "iciest": 8130,
  "icated": 8131,
  "icate": 8132,
  "ivery": 8133,
  "hings": 8134,
  "hew": 8135,
  "hef": 8136,
  "heap": 8137,
  "hap": 8138,
  "haps": 8139,
  "gnorant": 8140,
  "ggies": 8141,
  "gth": 8142,
  "gic": 8143,
  "feree": 8144,
  "freeze": 8145,
  "fire": 8146,
  "ethoscope": 8147,
  "etops": 8148,
  "etite": 8149,
  "ercise": 8150,
  "erve": 8151,
  "erm": 8152,
  "ergic": 8153,
  "erf": 8154,
  "ending": 8155,
  "endant": 8156,
  "ength": 8157,
  "enery": 8158,
  "emies": 8159,
  "embers": 8160,
  "elax": 8161,
  "ears": 8162,
  "eading": 8163,
  "eers": 8164,
  "eaky": 8165,
  "eah": 8166,
  "eady": 8167,
  "dream": 8168,
  "dink": 8169,
  "date": 8170,
  "creams": 8171,
  "crease": 8172,
  "colored": 8173,
  "covered": 8174,
  "cloud": 8175,
  "ckly": 8176,
  "cidents": 8177,
  "cho": 8178,
  "chard": 8179,
  "ceeded": 8180,
  "cept": 8181,
  "cakes": 8182,
  "cuments": 8183,
  "cled": 8184,
  "cers": 8185,
  "cent": 8186,
  "ccidents": 8187,
  "can": 8188,
  "cal": 8189,
  "bris": 8190,
  "boos": 8191,
  "boards": 8192,
  "beep": 8193,
  "bbers": 8194,
  "broken": 8195,
  "boy": 8196,
  "bird": 8197,
  "bell": 8198,
  "bank": 8199,
  "bang": 8200,
  "bage": 8201,
  "aying": 8202,
  "awked": 8203,
  "auli": 8204,
  "atest": 8205,
  "atform": 8206,
  "arness": 8207,
  "armer": 8208,
  "arlings": 8209,
  "arefully": 8210,
  "arsh": 8211,
  "arity": 8212,
  "arget": 8213,
  "arger": 8214,
  "apple": 8215,
  "antastic": 8216,
  "aning": 8217,
  "ampoline": 8218,
  "amiliar": 8219,
  "allow": 8220,
  "adually": 8221,
  "ads": 8222,
  "achine": 8223,
  "ausages": 8224,
  "aa": 8225,
  "Zip": 8226,
  "Yippee": 8227,
  "Yield": 8228,
  "Yeah": 8229,
  "Wouldn": 8230,
  "Whistling": 8231,
  "Work": 8232,
  "Woah": 8233,
  "Wisdom": 8234,
  "Wake": 8235,
  "Vivi": 8236,
  "Under": 8237,
  "Three": 8238,
  "Though": 8239,
  "Trust": 8240,
  "Toys": 8241,
  "Terry": 8242,
  "Tara": 8243,
  "TH": 8244,
  "Spirit": 8245,
  "Spin": 8246,
  "Spidey": 8247,
  "Slowly": 8248,
  "Shut": 8249,
  "Shh": 8250,
  "Samantha": 8251,
  "Summer": 8252,
  "Su": 8253,
  "Sque": 8254,
  "Splash": 8255,
  "Sn": 8256,
  "Sleep": 8257,
  "Sit": 8258,
  "Seth": 8259,
  "Sean": 8260,
  "Seal": 8261,
  "Sadly": 8262,
  "Rocky": 8263,
  "Rover": 8264,
  "Rollie": 8265,
  "Rug": 8266,
  "Ruff": 8267,
  "Rocco": 8268,
  "Rabbit": 8269,
  "RE": 8270,
  "Princess": 8271,
  "Pepper": 8272,
  "Pop": 8273,
  "Play": 8274,
  "Penny": 8275,
  "Outside": 8276,
  "Only": 8277,
  "Open": 8278,
  "OX": 8279,
  "Nate": 8280,
  "NG": 8281,
  "Maya": 8282,
  "Marie": 8283,
  "Maria": 8284,
  "Michael": 8285,
  "Malerious": 8286,
  "Machine": 8287,
  "Mabel": 8288,
  "Looks": 8289,
  "Love": 8290,
  "Lola": 8291,
  "Lizzie": 8292,
  "Liz": 8293,
  "Listen": 8294,
  "Lilly": 8295,
  "Larry": 8296,
  "LB": 8297,
  "LBOX": 8298,
  "Keep": 8299,
  "Kids": 8300,
  "Kelly": 8301,
  "Joshua": 8302,
  "June": 8303,
  "Julie": 8304,
  "Joy": 8305,
  "Jordan": 8306,
  "Jolly": 8307,
  "Jacob": 8308,
  "Instead": 8309,
  "Ignorant": 8310,
  "ING": 8311,
  "ILBOX": 8312,
  "Hooray": 8313,
  "Hippy": 8314,
  "Herb": 8315,
  "Hair": 8316,
  "Goal": 8317,
  "Got": 8318,
  "Get": 8319,
  "Gather": 8320,
  "Fox": 8321,
  "Finn": 8322,
  "Freeze": 8323,
  "Fix": 8324,
  "Elsa": 8325,
  "Elly": 8326,
  "Elephant": 8327,
  "Ed": 8328,
  "Each": 8329,
  "Duck": 8330,
  "Down": 8331,
  "Dino": 8332,
  "Despite": 8333,
  "Days": 8334,
  "Cs": 8335,
  "Crabs": 8336,
  "Count": 8337,
  "Coco": 8338,
  "Cheap": 8339,
  "Cari": 8340,
  "Car": 8341,
  "Brownie": 8342,
  "Brad": 8343,
  "Betsy": 8344,
  "Beep": 8345,
  "Brrr": 8346,
  "Boy": 8347,
  "Both": 8348,
  "Bop": 8349,
  "Bless": 8350,
  "Believe": 8351,
  "Back": 8352,
  "Baa": 8353,
  "BCs": 8354,
  "Always": 8355,
  "Alright": 8356,
  "ANT": 8357,
  "Arthur": 8358,
  "Ant": 8359,
  "Amanda": 8360,
  "Aid": 8361,
  "Ah": 8362,
  "Abigail": 8363,
  "Abby": 8364,
  "AILBOX": 8365,
  "?â.": 8366,
  "?!\"": 8367,
  ".''": 8368,
  "'.\"": 8369,
  "\"!": 8370,
  " â": 8371,
  " zebras": 8372,
  " yourselves": 8373,
  " yielding": 8374,
  " yielded": 8375,
  " yelped": 8376,
  " wraps": 8377,
  " wrapper": 8378,
  " worst": 8379,
  " wobbling": 8380,
  " within": 8381,
  " wisest": 8382,
  " winds": 8383,
  " whoever": 8384,
  " whiskers": 8385,
  " whipped": 8386,
  " whine": 8387,
  " whales": 8388,
  " weekends": 8389,
  " weapons": 8390,
  " weaker": 8391,
  " watermelon": 8392,
  " washes": 8393,
  " warrior": 8394,
  " wax": 8395,
  " wanna": 8396,
  " waking": 8397,
  " wadd": 8398,
  " volunteers": 8399,
  " volunteer": 8400,
  " visitors": 8401,
  " villian": 8402,
  " vial": 8403,
  " venture": 8404,
  " vehicles": 8405,
  " veggies": 8406,
  " uses": 8407,
  " unwrap": 8408,
  " untwist": 8409,
  " untie": 8410,
  " unlocks": 8411,
  " unfamiliar": 8412,
  " understands": 8413,
  " underneath": 8414,
  " undo": 8415,
  " unzip": 8416,
  " unscrew": 8417,
  " unless": 8418,
  " unable": 8419,
  " types": 8420,
  " twitched": 8421,
  " tweet": 8422,
  " tugging": 8423,
  " treated": 8424,
  " treetops": 8425,
  " travelled": 8426,
  " traveler": 8427,
  " transformed": 8428,
  " trampoline": 8429,
  " tongues": 8430,
  " totally": 8431,
  " tiredness": 8432,
  " tips": 8433,
  " tidied": 8434,
  " tickets": 8435,
  " thoughts": 8436,
  " thinner": 8437,
  " throat": 8438,
  " tests": 8439,
  " tents": 8440,
  " temperature": 8441,
  " testing": 8442,
  " tangled": 8443,
  " tummies": 8444,
  " tumbled": 8445,
  " tuck": 8446,
  " tippy": 8447,
  " ties": 8448,
  " target": 8449,
  " swimsuits": 8450,
  " sweetly": 8451,
  " sweetest": 8452,
  " sweeping": 8453,
  " swaying": 8454,
  " swat": 8455,
  " surprising": 8456,
  " surface": 8457,
  " suits": 8458,
  " suffering": 8459,
  " successes": 8460,
  " supper": 8461,
  " stroking": 8462,
  " stretches": 8463,
  " strengthen": 8464,
  " strum": 8465,
  " storekeeper": 8466,
  " stormy": 8467,
  " stored": 8468,
  " stomped": 8469,
  " stinging": 8470,
  " stiff": 8471,
  " stethoscope": 8472,
  " squeezing": 8473,
  " squares": 8474,
  " squawked": 8475,
  " sprinkled": 8476,
  " sprinkle": 8477,
  " springs": 8478,
  " sprang": 8479,
  " spoonful": 8480,
  " splasher": 8481,
  " spinach": 8482,
  " spelling": 8483,
  " speeds": 8484,
  " speeding": 8485,
  " sparks": 8486,
  " spaceship": 8487,
  " spades": 8488,
  " solving": 8489,
  " softness": 8490,
  " softest": 8491,
  " soothing": 8492,
  " snowballs": 8493,
  " sniffled": 8494,
  " sniffing": 8495,
  " sneezing": 8496,
  " snoring": 8497,
  " snatches": 8498,
  " snar": 8499,
  " snapping": 8500,
  " smoother": 8501,
  " smartest": 8502,
  " slices": 8503,
  " sleeps": 8504,
  " sleek": 8505,
  " sled": 8506,
  " skirts": 8507,
  " skilled": 8508,
  " sixty": 8509,
  " sincere": 8510,
  " sideways": 8511,
  " shrunk": 8512,
  " shrinking": 8513,
  " shorts": 8514,
  " shoots": 8515,
  " shooter": 8516,
  " sharped": 8517,
  " shaped": 8518,
  " shh": 8519,
  " shame": 8520,
  " sets": 8521,
  " serving": 8522,
  " sensation": 8523,
  " self": 8524,
  " seeker": 8525,
  " secure": 8526,
  " seagulls": 8527,
  " seaweed": 8528,
  " scurrying": 8529,
  " scratching": 8530,
  " scrubbing": 8531,
  " scooping": 8532,
  " scolds": 8533,
  " scares": 8534,
  " scri": 8535,
  " scra": 8536,
  " science": 8537,
  " scenery": 8538,
  " savor": 8539,
  " satisf": 8540,
  " salon": 8541,
  " safekeeping": 8542,
  " suspic": 8543,
  " sizz": 8544,
  " sipping": 8545,
  " ruled": 8546,
  " rubs": 8547,
  " rotten": 8548,
  " roofs": 8549,
  " rolls": 8550,
  " role": 8551,
  " rocked": 8552,
  " robbers": 8553,
  " riverbank": 8554,
  " risky": 8555,
  " ribbit": 8556,
  " results": 8557,
  " restoring": 8558,
  " resumed": 8559,
  " resisted": 8560,
  " replacing": 8561,
  " repairs": 8562,
  " remaining": 8563,
  " remembers": 8564,
  " refreshing": 8565,
  " recipe": 8566,
  " reappeared": 8567,
  " reader": 8568,
  " rewards": 8569,
  " reunited": 8570,
  " renewed": 8571,
  " rely": 8572,
  " rejoiced": 8573,
  " referee": 8574,
  " reason": 8575,
  " rats": 8576,
  " rags": 8577,
  " racer": 8578,
  " ruff": 8579,
  " routines": 8580,
  " rises": 8581,
  " riddle": 8582,
  " quieter": 8583,
  " quacks": 8584,
  " purch": 8585,
  " pupils": 8586,
  " punishment": 8587,
  " protection": 8588,
  " promising": 8589,
  " proved": 8590,
  " proceeded": 8591,
  " princesses": 8592,
  " prices": 8593,
  " prized": 8594,
  " prickly": 8595,
  " prepar": 8596,
  " praying": 8597,
  " postcard": 8598,
  " popsicle": 8599,
  " poster": 8600,
  " pose": 8601,
  " pos": 8602,
  " pollin": 8603,
  " pollen": 8604,
  " plums": 8605,
  " playdate": 8606,
  " planting": 8607,
  " planning": 8608,
  " plunged": 8609,
  " plugged": 8610,
  " platform": 8611,
  " placing": 8612,
  " phrase": 8613,
  " pets": 8614,
  " permitted": 8615,
  " performed": 8616,
  " perhaps": 8617,
  " peels": 8618,
  " pedaling": 8619,
  " peculiar": 8620,
  " peacefully": 8621,
  " peck": 8622,
  " pays": 8623,
  " pawed": 8624,
  " partners": 8625,
  " panicking": 8626,
  " pancakes": 8627,
  " paddled": 8628,
  " paddle": 8629,
  " packing": 8630,
  " puck": 8631,
  " pry": 8632,
  " pouted": 8633,
  " pouch": 8634,
  " poop": 8635,
  " pendant": 8636,
  " pang": 8637,
  " pace": 8638,
  " owns": 8639,
  " overcome": 8640,
  " outsm": 8641,
  " outcome": 8642,
  " orders": 8643,
  " orchard": 8644,
  " onward": 8645,
  " obeyed": 8646,
  " oatmeal": 8647,
  " opposite": 8648,
  " notes": 8649,
  " nightmares": 8650,
  " nights": 8651,
  " nibbled": 8652,
  " nests": 8653,
  " neighbours": 8654,
  " needles": 8655,
  " necklaces": 8656,
  " naps": 8657,
  " napkins": 8658,
  " nu": 8659,
  " mustn": 8660,
  " mugs": 8661,
  " mooed": 8662,
  " mischievously": 8663,
  " misty": 8664,
  " mindful": 8665,
  " microwave": 8666,
  " messages": 8667,
  " mesmerised": 8668,
  " meowing": 8669,
  " meetings": 8670,
  " meals": 8671,
  " mattered": 8672,
  " material": 8673,
  " masterpiece": 8674,
  " marketplace": 8675,
  " magician": 8676,
  " mushy": 8677,
  " mow": 8678,
  " mirac": 8679,
  " loops": 8680,
  " loading": 8681,
  " losing": 8682,
  " losers": 8683,
  " local": 8684,
  " lifts": 8685,
  " lectures": 8686,
  " leaping": 8687,
  " leans": 8688,
  " leaks": 8689,
  " lawyers": 8690,
  " landslide": 8691,
  " labels": 8692,
  " lazily": 8693,
  " length": 8694,
  " larger": 8695,
  " knives": 8696,
  " knit": 8697,
  " kissing": 8698,
  " keyboard": 8699,
  " kings": 8700,
  " justice": 8701,
  " joyful": 8702,
  " joining": 8703,
  " jaws": 8704,
  " ironing": 8705,
  " introduced": 8706,
  " intently": 8707,
  " instrument": 8708,
  " insists": 8709,
  " insects": 8710,
  " inseparable": 8711,
  " inches": 8712,
  " injured": 8713,
  " inched": 8714,
  " imaginations": 8715,
  " humming": 8716,
  " horrible": 8717,
  " horizon": 8718,
  " hooks": 8719,
  " holidays": 8720,
  " hiss": 8721,
  " herbs": 8722,
  " heels": 8723,
  " headache": 8724,
  " heights": 8725,
  " heav": 8726,
  " heater": 8727,
  " harming": 8728,
  " hated": 8729,
  " halves": 8730,
  " hundred": 8731,
  " hour": 8732,
  " hooves": 8733,
  " harness": 8734,
  " guessing": 8735,
  " guardian": 8736,
  " greens": 8737,
  " greater": 8738,
  " greed": 8739,
  " greatest": 8740,
  " granddaughter": 8741,
  " grazing": 8742,
  " gracious": 8743,
  " grumbling": 8744,
  " grumbled": 8745,
  " gradually": 8746,
  " goodness": 8747,
  " glimmer": 8748,
  " glistening": 8749,
  " glided": 8750,
  " giggles": 8751,
  " generously": 8752,
  " gems": 8753,
  " gardening": 8754,
  " garbage": 8755,
  " groom": 8756,
  " gonna": 8757,
  " glee": 8758,
  " funn": 8759,
  " fulfilled": 8760,
  " frowns": 8761,
  " freedom": 8762,
  " forgives": 8763,
  " footsteps": 8764,
  " focused": 8765,
  " fluttering": 8766,
  " fluttered": 8767,
  " fleas": 8768,
  " flashlights": 8769,
  " flaps": 8770,
  " flu": 8771,
  " flipping": 8772,
  " flippers": 8773,
  " flipped": 8774,
  " flick": 8775,
  " flas": 8776,
  " fires": 8777,
  " filth": 8778,
  " feast": 8779,
  " fasten": 8780,
  " farmers": 8781,
  " fairness": 8782,
  " facts": 8783,
  " failed": 8784,
  " fail": 8785,
  " fried": 8786,
  " fantastic": 8787,
  " fading": 8788,
  " fade": 8789,
  " explorers": 8790,
  " exploration": 8791,
  " explains": 8792,
  " expert": 8793,
  " exercising": 8794,
  " examining": 8795,
  " except": 8796,
  " entering": 8797,
  " enjoys": 8798,
  " encountered": 8799,
  " enclosure": 8800,
  " enemies": 8801,
  " embraced": 8802,
  " elbows": 8803,
  " earrings": 8804,
  " eagerness": 8805,
  " echo": 8806,
  " earned": 8807,
  " dustpan": 8808,
  " dressing": 8809,
  " drawn": 8810,
  " drains": 8811,
  " drown": 8812,
  " dots": 8813,
  " doorway": 8814,
  " doorbell": 8815,
  " dollars": 8816,
  " documents": 8817,
  " disappointment": 8818,
  " direction": 8819,
  " dinners": 8820,
  " divided": 8821,
  " deserved": 8822,
  " descri": 8823,
  " demands": 8824,
  " demonstrated": 8825,
  " delayed": 8826,
  " delivery": 8827,
  " devastated": 8828,
  " deeds": 8829,
  " debris": 8830,
  " deb": 8831,
  " daydream": 8832,
  " darted": 8833,
  " dancers": 8834,
  " daisies": 8835,
  " du": 8836,
  " dip": 8837,
  " dart": 8838,
  " darlings": 8839,
  " damp": 8840,
  " current": 8841,
  " croak": 8842,
  " creamy": 8843,
  " creams": 8844,
  " crew": 8845,
  " creations": 8846,
  " creaked": 8847,
  " creak": 8848,
  " cracks": 8849,
  " crumpled": 8850,
  " cruel": 8851,
  " cowboy": 8852,
  " countryside": 8853,
  " couple": 8854,
  " costly": 8855,
  " correctly": 8856,
  " cords": 8857,
  " cooperate": 8858,
  " convincing": 8859,
  " contentment": 8860,
  " contents": 8861,
  " congratulations": 8862,
  " congratulated": 8863,
  " concern": 8864,
  " consider": 8865,
  " conquered": 8866,
  " completing": 8867,
  " complicated": 8868,
  " compared": 8869,
  " commotion": 8870,
  " command": 8871,
  " combined": 8872,
  " compromise": 8873,
  " common": 8874,
  " collapsed": 8875,
  " colder": 8876,
  " cobwebs": 8877,
  " cosy": 8878,
  " cloths": 8879,
  " cleans": 8880,
  " cleared": 8881,
  " classes": 8882,
  " clack": 8883,
  " circled": 8884,
  " cherished": 8885,
  " checking": 8886,
  " cheers": 8887,
  " chalks": 8888,
  " chains": 8889,
  " chip": 8890,
  " chilly": 8891,
  " chattered": 8892,
  " chatted": 8893,
  " charity": 8894,
  " carpenter": 8895,
  " cares": 8896,
  " cardinal": 8897,
  " carries": 8898,
  " capture": 8899,
  " cans": 8900,
  " canary": 8901,
  " campfire": 8902,
  " calming": 8903,
  " cautiously": 8904,
  " caused": 8905,
  " customer": 8906,
  " coughed": 8907,
  " cotton": 8908,
  " cottage": 8909,
  " cinema": 8910,
  " buying": 8911,
  " business": 8912,
  " burnt": 8913,
  " buggy": 8914,
  " buckles": 8915,
  " bubbly": 8916,
  " budge": 8917,
  " brushing": 8918,
  " breaths": 8919,
  " bride": 8920,
  " bowing": 8921,
  " bond": 8922,
  " boast": 8923,
  " blinks": 8924,
  " blushed": 8925,
  " blinking": 8926,
  " blade": 8927,
  " bits": 8928,
  " bills": 8929,
  " bicycles": 8930,
  " bending": 8931,
  " benches": 8932,
  " belts": 8933,
  " belongings": 8934,
  " bells": 8935,
  " behavior": 8936,
  " beeped": 8937,
  " beautifully": 8938,
  " beating": 8939,
  " beam": 8940,
  " beads": 8941,
  " battle": 8942,
  " bathed": 8943,
  " barrels": 8944,
  " bars": 8945,
  " banging": 8946,
  " ballet": 8947,
  " backpacks": 8948,
  " backgrounds": 8949,
  " baa": 8950,
  " bank": 8951,
  " aware": 8952,
  " attaching": 8953,
  " atmosphere": 8954,
  " astronaut": 8955,
  " argument": 8956,
  " aprons": 8957,
  " appreciation": 8958,
  " appl": 8959,
  " appetite": 8960,
  " anytime": 8961,
  " anticipation": 8962,
  " ankle": 8963,
  " anger": 8964,
  " among": 8965,
  " allowing": 8966,
  " allergic": 8967,
  " although": 8968,
  " affect": 8969,
  " admiration": 8970,
  " address": 8971,
  " addition": 8972,
  " adult": 8973,
  " active": 8974,
  " action": 8975,
  " ability": 8976,
  " award": 8977,
  " ais": 8978,
  " Zog": 8979,
  " Yuck": 8980,
  " World": 8981,
  " Wolf": 8982,
  " Whoever": 8983,
  " WE": 8984,
  " WANT": 8985,
  " Until": 8986,
  " Tuesdays": 8987,
  " Tomato": 8988,
  " Time": 8989,
  " Think": 8990,
  " Turkey": 8991,
  " Trust": 8992,
  " Trucky": 8993,
  " Too": 8994,
  " Tiger": 8995,
  " Tape": 8996,
  " TO": 8997,
  " THAT": 8998,
  " Store": 8999,
  " Steven": 9000,
  " Sneaky": 9001,
  " Smoke": 9002,
  " Should": 9003,
  " Shall": 9004,
  " Samantha": 9005,
  " Sweet": 9006,
  " Susan": 9007,
  " Sure": 9008,
  " Soup": 9009,
  " Sit": 9010,
  " Sean": 9011,
  " Save": 9012,
  " Sausages": 9013,
  " Run": 9014,
  " Riding": 9015,
  " Ready": 9016,
  " Reading": 9017,
  " Playing": 9018,
  " Pretty": 9019,
  " Poula": 9020,
  " Pinching": 9021,
  " Pilot": 9022,
  " Paper": 9023,
  " Own": 9024,
  " Other": 9025,
  " Olive": 9026,
  " Oh": 9027,
  " Musician": 9028,
  " Mei": 9029,
  " More": 9030,
  " Mine": 9031,
  " Melon": 9032,
  " Man": 9033,
  " Making": 9034,
  " Make": 9035,
  " MAILBOX": 9036,
  " Life": 9037,
  " Joshua": 9038,
  " Jump": 9039,
  " Judge": 9040,
  " Jordan": 9041,
  " Instantly": 9042,
  " Ice": 9043,
  " Hooray": 9044,
  " Hiding": 9045,
  " Hand": 9046,
  " Ha": 9047,
  " Giving": 9048,
  " Friendship": 9049,
  " Forgiving": 9050,
  " Freeze": 9051,
  " Forever": 9052,
  " Farmer": 9053,
  " Eating": 9054,
  " EAT": 9055,
  " Davey": 9056,
  " Dusty": 9057,
  " DO": 9058,
  " Climbing": 9059,
  " Clear": 9060,
  " Cars": 9061,
  " Crocodile": 9062,
  " Crayons": 9063,
  " Chef": 9064,
  " Cauli": 9065,
  " Carefully": 9066,
  " Blob": 9067,
  " Black": 9068,
  " Bull": 9069,
  " Bulb": 9070,
  " Broccoli": 9071,
  " Boy": 9072,
  " Books": 9073,
  " Believe": 9074,
  " Barney": 9075,
  " Ball": 9076,
  " Another": 9077,
  " Animals": 9078,
  " Acorns": 9079,
  " Automobiles": 9080,
  " Aunt": 9081,
  " Amanda": 9082,
  " Alya": 9083,
  " Accidents": 9084,
  " ABCs": 9085,
  " 10": 9086,
  " --": 9087,
  " ouches": 9088,
  " ill": 9089,
  " 9": 9090,
  " 4": 9091,
  "â,": 9092,
  "â¦": 9093,
  "â¦â": 9094,
  "zzles": 9095,
  "ziest": 9096,
  "zier": 9097,
  "ythag": 9098,
  "ythagor": 9099,
  "ythagoras": 9100,
  "ymen": 9101,
  "yme": 9102,
  "yers": 9103,
  "xture": 9104,
  "xed": 9105,
  "wells": 9106,
  "weetheart": 9107,
  "wy": 9108,
  "wise": 9109,
  "wing": 9110,
  "welcome": 9111,
  "vrooms": 9112,
  "versation": 9113,
  "verty": 9114,
  "vert": 9115,
  "vertising": 9116,
  "vering": 9117,
  "vented": 9118,
  "vels": 9119,
  "vell": 9120,
  "vellous": 9121,
  "vy": 9122,
  "vix": 9123,
  "vity": 9124,
  "vities": 9125,
  "vince": 9126,
  "vas": 9127,
  "vary": 9128,
  "vacy": 9129,
  "vable": 9130,
  "utching": 9131,
  "utron": 9132,
  "uted": 9133,
  "utched": 9134,
  "utation": 9135,
  "ustling": 9136,
  "usks": 9137,
  "uses": 9138,
  "urthermore": 9139,
  "urprised": 9140,
  "urnament": 9141,
  "uriosity": 9142,
  "uredly": 9143,
  "urs": 9144,
  "urking": 9145,
  "urity": 9146,
  "urf": 9147,
  "urfing": 9148,
  "urance": 9149,
  "urable": 9150,
  "uped": 9151,
  "unting": 9152,
  "until": 9153,
  "unted": 9154,
  "unned": 9155,
  "unken": 9156,
  "unicate": 9157,
  "unge": 9158,
  "unches": 9159,
  "unate": 9160,
  "umph": 9161,
  "umphant": 9162,
  "umbles": 9163,
  "umbers": 9164,
  "uliflower": 9165,
  "ulfed": 9166,
  "ulva": 9167,
  "ulpr": 9168,
  "ulprit": 9169,
  "ulks": 9170,
  "ulip": 9171,
  "ulge": 9172,
  "ulation": 9173,
  "ula": 9174,
  "uge": 9175,
  "uffs": 9176,
  "uffle": 9177,
  "uddies": 9178,
  "uding": 9179,
  "udges": 9180,
  "uder": 9181,
  "ucts": 9182,
  "ucumber": 9183,
  "ucted": 9184,
  "uclid": 9185,
  "ucle": 9186,
  "ucleus": 9187,
  "uise": 9188,
  "uis": 9189,
  "uisher": 9190,
  "uing": 9191,
  "uild": 9192,
  "turned": 9193,
  "tinguisher": 9194,
  "themed": 9195,
  "that": 9196,
  "terus": 9197,
  "ters": 9198,
  "terrup": 9199,
  "terrupted": 9200,
  "tern": 9201,
  "terns": 9202,
  "tter": 9203,
  "toys": 9204,
  "touch": 9205,
  "tled": 9206,
  "there": 9207,
  "tell": 9208,
  "telling": 9209,
  "tear": 9210,
  "taker": 9211,
  "take": 9212,
  "table": 9213,
  "stupid": 9214,
  "storm": 9215,
  "stones": 9216,
  "stir": 9217,
  "stinctively": 9218,
  "stick": 9219,
  "stein": 9220,
  "stand": 9221,
  "stands": 9222,
  "staking": 9223,
  "stakingly": 9224,
  "staff": 9225,
  "stac": 9226,
  "stacle": 9227,
  "ssomed": 9228,
  "spapers": 9229,
  "space": 9230,
  "shadowing": 9231,
  "shadowed": 9232,
  "shm": 9233,
  "shmallow": 9234,
  "shmallows": 9235,
  "shar": 9236,
  "sharp": 9237,
  "shake": 9238,
  "sently": 9239,
  "sey": 9240,
  "severed": 9241,
  "sear": 9242,
  "search": 9243,
  "surprise": 9244,
  "suring": 9245,
  "sue": 9246,
  "ssey": 9247,
  "spect": 9248,
  "sour": 9249,
  "sorry": 9250,
  "sled": 9251,
  "slap": 9252,
  "sk": 9253,
  "skating": 9254,
  "she": 9255,
  "sery": 9256,
  "sence": 9257,
  "sen": 9258,
  "sary": 9259,
  "sa": 9260,
  "sao": 9261,
  "saoged": 9262,
  "rotum": 9263,
  "romos": 9264,
  "romosome": 9265,
  "roduce": 9266,
  "roll": 9267,
  "roj": 9268,
  "rojan": 9269,
  "rmchair": 9270,
  "riendly": 9271,
  "rious": 9272,
  "rients": 9273,
  "rib": 9274,
  "ribute": 9275,
  "reth": 9276,
  "rethra": 9277,
  "rete": 9278,
  "ressions": 9279,
  "reetings": 9280,
  "reeny": 9281,
  "reams": 9282,
  "respect": 9283,
  "resently": 9284,
  "request": 9285,
  "rem": 9286,
  "remely": 9287,
  "reated": 9288,
  "rays": 9289,
  "rapher": 9290,
  "ragr": 9291,
  "ragrant": 9292,
  "rages": 9293,
  "racts": 9294,
  "rapt": 9295,
  "raptions": 9296,
  "rapped": 9297,
  "rain": 9298,
  "raging": 9299,
  "rac": 9300,
  "racted": 9301,
  "rustrated": 9302,
  "ruction": 9303,
  "ror": 9304,
  "rop": 9305,
  "ront": 9306,
  "rimp": 9307,
  "rime": 9308,
  "rid": 9309,
  "ridor": 9310,
  "rates": 9311,
  "rate": 9312,
  "ratefully": 9313,
  "rane": 9314,
  "quired": 9315,
  "quins": 9316,
  "puter": 9317,
  "ptop": 9318,
  "pting": 9319,
  "ptic": 9320,
  "ptical": 9321,
  "prints": 9322,
  "prinkle": 9323,
  "ppling": 9324,
  "pples": 9325,
  "powers": 9326,
  "plexed": 9327,
  "pleased": 9328,
  "pling": 9329,
  "pler": 9330,
  "phones": 9331,
  "perately": 9332,
  "perated": 9333,
  "pecting": 9334,
  "passed": 9335,
  "paired": 9336,
  "pop": 9337,
  "pitched": 9338,
  "pins": 9339,
  "phew": 9340,
  "ped": 9341,
  "pair": 9342,
  "owled": 9343,
  "owy": 9344,
  "owwy": 9345,
  "owsed": 9346,
  "ousins": 9347,
  "ousand": 9348,
  "ounded": 9349,
  "oulding": 9350,
  "ouching": 9351,
  "ouraged": 9352,
  "ourage": 9353,
  "ouched": 9354,
  "otle": 9355,
  "ostate": 9356,
  "orts": 9357,
  "orth": 9358,
  "orseful": 9359,
  "ormation": 9360,
  "orgeous": 9361,
  "oreshadowing": 9362,
  "ordinary": 9363,
  "orking": 9364,
  "oris": 9365,
  "orious": 9366,
  "original": 9367,
  "orget": 9368,
  "orgettable": 9369,
  "organ": 9370,
  "organized": 9371,
  "orched": 9372,
  "opted": 9373,
  "ootball": 9374,
  "ooped": 9375,
  "oons": 9376,
  "oomiest": 9377,
  "ooky": 9378,
  "oofy": 9379,
  "oodling": 9380,
  "oodles": 9381,
  "oodle": 9382,
  "oozy": 9383,
  "oozing": 9384,
  "ooo": 9406,
  "ooking": 9386,
  "ooked": 9387,
  "onus": 9388,
  "ono": 9389,
  "onished": 9390,
  "onies": 9391,
  "ompet": 9392,
  "ompetition": 9393,
  "omets": 9394,
  "olding": 9395,
  "olded": 9396,
  "olite": 9397,
  "olicking": 9398,
  "ogress": 9399,
  "ographer": 9400,
  "oggy": 9401,
  "oga": 9402,
  "ox": 9403,
  "over": 9404,
  "ossomed": 9405,
  "ohed": 9407,
  "off": 9408,
  "oem": 9409,
  "oems": 9410,
  "oard": 9411,
  "nytime": 9412,
  "ntroduce": 9413,
  "nicus": 9414,
  "ngel": 9415,
  "nessed": 9416,
  "nels": 9417,
  "nders": 9418,
  "ndition": 9419,
  "ncouraged": 9420,
  "normal": 9421,
  "non": 9422,
  "niz": 9423,
  "nings": 9424,
  "nied": 9425,
  "next": 9426,
  "nec": 9427,
  "necked": 9428,
  "mony": 9429,
  "mingly": 9430,
  "mention": 9431,
  "maids": 9432,
  "munk": 9433,
  "moving": 9434,
  "mmediately": 9435,
  "mine": 9436,
  "mery": 9437,
  "mart": 9438,
  "mag": 9439,
  "magine": 9440,
  "lying": 9441,
  "lowing": 9442,
  "longer": 9443,
  "llent": 9444,
  "lessly": 9445,
  "lendid": 9446,
  "lest": 9447,
  "leen": 9448,
  "lech": 9449,
  "leasing": 9450,
  "lands": 9451,
  "lving": 9452,
  "lts": 9453,
  "lster": 9454,
  "lor": 9455,
  "loin": 9456,
  "lob": 9457,
  "limits": 9458,
  "like": 9459,
  "life": 9460,
  "lers": 9461,
  "len": 9462,
  "keys": 9463,
  "kipping": 9464,
  "jesty": 9465,
  "jestic": 9466,
  "jelly": 9467,
  "jar": 9468,
  "izziness": 9469,
  "izzed": 9470,
  "iversary": 9471,
  "ivore": 9472,
  "ivid": 9473,
  "ivate": 9474,
  "itts": 9475,
  "itties": 9476,
  "itte": 9477,
  "ithered": 9478,
  "itedly": 9479,
  "itcase": 9480,
  "itoris": 9481,
  "itnessed": 9482,
  "itive": 9483,
  "itic": 9484,
  "itician": 9485,
  "iticians": 9486,
  "itated": 9487,
  "istotle": 9488,
  "isputed": 9489,
  "ishments": 9490,
  "isey": 9491,
  "ism": 9492,
  "isible": 9493,
  "isen": 9494,
  "irruped": 9495,
  "irritated": 9496,
  "irted": 9497,
  "irls": 9498,
  "irling": 9499,
  "ircles": 9500,
  "inkly": 9501,
  "inkets": 9502,
  "inker": 9503,
  "ingly": 9504,
  "ingling": 9505,
  "ingled": 9506,
  "inger": 9507,
  "ingerly": 9508,
  "inged": 9509,
  "indulge": 9510,
  "indness": 9511,
  "indered": 9512,
  "incts": 9513,
  "instein": 9514,
  "innied": 9515,
  "initely": 9516,
  "increase": 9517,
  "incl": 9518,
  "include": 9519,
  "impering": 9520,
  "imped": 9521,
  "imedes": 9522,
  "ims": 9523,
  "immon": 9524,
  "immery": 9525,
  "iment": 9526,
  "imens": 9527,
  "imension": 9528,
  "imb": 9529,
  "ilts": 9530,
  "illed": 9531,
  "illary": 9532,
  "ileo": 9533,
  "ilst": 9534,
  "ili": 9535,
  "iliad": 9536,
  "ightning": 9537,
  "ightly": 9538,
  "ighting": 9539,
  "ighing": 9540,
  "igger": 9541,
  "igers": 9542,
  "igeon": 9543,
  "igeons": 9544,
  "ifted": 9545,
  "ificate": 9546,
  "idded": 9547,
  "idance": 9548,
  "ication": 9549,
  "ically": 9550,
  "ibniz": 9551,
  "ibly": 9552,
  "ixture": 9553,
  "ius": 9554,
  "iara": 9555,
  "iance": 9556,
  "herer": 9557,
  "hers": 9558,
  "heets": 9559,
  "haved": 9560,
  "hunting": 9561,
  "hopped": 9562,
  "harsh": 9563,
  "hadow": 9564,
  "gnore": 9565,
  "ggings": 9566,
  "getting": 9567,
  "genc": 9568,
  "gencies": 9569,
  "gedy": 9570,
  "gesting": 9571,
  "gem": 9572,
  "good": 9573,
  "give": 9574,
  "gas": 9575,
  "gar": 9576,
  "gage": 9577,
  "frained": 9578,
  "fortune": 9579,
  "fortunate": 9580,
  "ferend": 9581,
  "fact": 9582,
  "faction": 9583,
  "full": 9584,
  "friendly": 9585,
  "free": 9586,
  "fly": 9587,
  "flowing": 9588,
  "five": 9589,
  "fired": 9590,
  "filled": 9591,
  "field": 9592,
  "fet": 9593,
  "fetime": 9594,
  "far": 9595,
  "fall": 9596,
  "ewspapers": 9597,
  "etchup": 9598,
  "etwork": 9599,
  "etched": 9600,
  "etah": 9601,
  "etahs": 9602,
  "estured": 9603,
  "ests": 9604,
  "estine": 9605,
  "espect": 9606,
  "esides": 9607,
  "ertificate": 9608,
  "erms": 9609,
  "erfume": 9610,
  "erfect": 9611,
  "ervix": 9612,
  "erves": 9613,
  "ernicus": 9614,
  "ernels": 9615,
  "ermaids": 9616,
  "erk": 9617,
  "erie": 9618,
  "ergency": 9619,
  "eped": 9620,
  "epe": 9621,
  "epeat": 9622,
  "entionally": 9623,
  "entre": 9624,
  "ender": 9625,
  "ended": 9626,
  "enn": 9627,
  "enna": 9628,
  "ennae": 9629,
  "ening": 9630,
  "emories": 9631,
  "emergency": 9632,
  "emain": 9633,
  "ellishments": 9634,
  "elaxing": 9635,
  "elve": 9636,
  "eluctantly": 9637,
  "eling": 9638,
  "elids": 9639,
  "elace": 9640,
  "effect": 9641,
  "effects": 9642,
  "eeking": 9643,
  "edly": 9644,
  "edication": 9645,
  "ection": 9646,
  "eched": 9647,
  "ecc": 9648,
  "ecca": 9649,
  "ebecca": 9650,
  "ezed": 9651,
  "eves": 9652,
  "eow": 9653,
  "meow": 9654,
  "either": 9655,
  "eft": 9656,
  "eeling": 9657,
  "ech": 9658,
  "earned": 9659,
  "dyssey": 9660,
  "dders": 9661,
  "ducts": 9662,
  "down": 9663,
  "dest": 9664,
  "dates": 9665,
  "cuts": 9666,
  "ctors": 9667,
  "ctum": 9668,
  "ctron": 9669,
  "ctions": 9670,
  "creas": 9671,
  "computer": 9672,
  "compassed": 9673,
  "coming": 9674,
  "comb": 9675,
  "cover": 9676,
  "cold": 9677,
  "coat": 9678,
  "clouds": 9679,
  "cluded": 9680,
  "clap": 9681,
  "cky": 9682,
  "cks": 9683,
  "ckled": 9684,
  "chanted": 9685,
  "changed": 9686,
  "chug": 9687,
  "chimedes": 9688,
  "children": 9689,
  "change": 9690,
  "chairs": 9691,
  "cessories": 9692,
  "centrated": 9693,
  "cellent": 9694,
  "cule": 9695,
  "cuffs": 9696,
  "crime": 9697,
  "crete": 9698,
  "cred": 9699,
  "coon": 9700,
  "cited": 9701,
  "cissors": 9702,
  "cier": 9703,
  "chers": 9704,
  "cat": 9705,
  "car": 9706,
  "came": 9707,
  "bring": 9708,
  "bridge": 9709,
  "boat": 9710,
  "behaved": 9711,
  "beam": 9712,
  "balls": 9713,
  "build": 9714,
  "bsolutely": 9715,
  "bly": 9716,
  "bish": 9717,
  "bber": 9718,
  "bat": 9719,
  "bathe": 9720,
  "azzling": 9721,
  "azy": 9722,
  "aze": 9723,
  "axe": 9724,
  "awyers": 9725,
  "awing": 9726,
  "autiously": 9727,
  "autiful": 9728,
  "atters": 9729,
  "attering": 9730,
  "attractive": 9731,
  "attended": 9732,
  "attach": 9733,
  "aturedly": 9734,
  "ators": 9735,
  "atitude": 9736,
  "atherer": 9737,
  "athed": 9738,
  "astly": 9739,
  "asting": 9740,
  "asta": 9741,
  "asured": 9742,
  "asant": 9743,
  "arts": 9744,
  "artled": 9745,
  "artes": 9746,
  "artbroken": 9747,
  "arning": 9748,
  "arewells": 9749,
  "areful": 9750,
  "ardless": 9751,
  "arted": 9752,
  "appiness": 9753,
  "aple": 9754,
  "antum": 9755,
  "ants": 9756,
  "antically": 9757,
  "anky": 9758,
  "anks": 9759,
  "angrier": 9760,
  "angles": 9761,
  "andles": 9762,
  "ances": 9763,
  "anterns": 9764,
  "anner": 9765,
  "anion": 9766,
  "anced": 9767,
  "ampion": 9768,
  "ampered": 9769,
  "ambling": 9770,
  "ammer": 9771,
  "amine": 9772,
  "alleys": 9773,
  "allowed": 9774,
  "allic": 9775,
  "alks": 9776,
  "aly": 9777,
  "alth": 9778,
  "alizing": 9779,
  "ality": 9780,
  "alities": 9781,
  "alileo": 9782,
  "akers": 9783,
  "aint": 9784,
  "ageways": 9785,
  "ague": 9786,
  "agina": 9787,
  "ager": 9788,
  "adness": 9789,
  "adling": 9790,
  "adled": 9791,
  "ackle": 9792,
  "aces": 9793,
  "acon": 9794,
  "acles": 9795,
  "abby": 9796,
  "abbed": 9797,
  "away": 9798,
  "auliflower": 9799,
  "auge": 9800,
  "aos": 9801,
  "ajesty": 9802,
  "aive": 9803,
  "aisey": 9804,
  "ahed": 9805,
  "afe": 9806,
  "Zips": 9807,
  "Zigzag": 9808,
  "Ziggy": 9809,
  "Yoga": 9810,
  "Yesterday": 9811,
  "Years": 9812,
  "Yawn": 9813,
  "Without": 9814,
  "Wee": 9815,
  "Working": 9816,
  "Wild": 9817,
  "Whew": 9818,
  "Wet": 9819,
  "Wednesday": 9820,
  "Wear": 9821,
  "Wally": 9822,
  "WHAT": 9823,
  "WA": 9824,
  "WAR": 9825,
  "WARN": 9826,
  "WARNING": 9827,
  "Valleys": 9828,
  "Up": 9829,
  "Todd": 9830,
  "Theater": 9831,
  "TheE": 9832,
  "TheEnd": 9833,
  "Thomas": 9834,
  "THY": 9835,
  "Twinkle": 9836,
  "Turtle": 9837,
  "Tuna": 9838,
  "Trucky": 9839,
  "Tree": 9840,
  "Toy": 9841,
  "Tippy": 9842,
  "Things": 9843,
  "Taking": 9844,
  "Table": 9845,
  "Sunshine": 9846,
  "Suzy": 9847,
  "Suzie": 9848,
  "Stupid": 9849,
  "Stretching": 9850,
  "Store": 9851,
  "Stitch": 9852,
  "Stir": 9853,
  "Still": 9854,
  "Steven": 9855,
  "Stella": 9856,
  "Stealing": 9857,
  "Startled": 9858,
  "Stand": 9859,
  "Staff": 9860,
  "Squeeze": 9861,
  "Squeaky": 9862,
  "Spark": 9863,
  "Someone": 9864,
  "Soft": 9865,
  "Snowy": 9866,
  "Snake": 9867,
  "Shrink": 9868,
  "Shrimp": 9869,
  "Show": 9870,
  "Shoo": 9871,
  "Shiny": 9872,
  "Shhh": 9873,
  "Share": 9874,
  "Shall": 9875,
  "Sweetheart": 9876,
  "Surrender": 9877,
  "Surprised": 9878,
  "Sprinkle": 9879,
  "Spring": 9880,
  "Soy": 9881,
  "Sowwy": 9882,
  "Soup": 9883,
  "Smart": 9884,
  "Slap": 9885,
  "Size": 9886,
  "Six": 9887,
  "Since": 9888,
  "Sienna": 9889,
  "Serve": 9890,
  "Send": 9891,
  "SC": 9892,
  "SCRE": 9893,
  "SCREE": 9894,
  "SCREEC": 9895,
  "SCREECH": 9896,
  "Robby": 9897,
  "Roll": 9898,
  "Realizing": 9899,
  "Rrr": 9900,
  "Rrrrr": 9901,
  "Rrrrrrr": 9902,
  "Rise": 9903,
  "Right": 9904,
  "Ria": 9905,
  "Rhythm": 9906,
  "Remain": 9907,
  "Relax": 9908,
  "Red": 9909,
  "Ray": 9910,
  "Quickly": 9911,
  "Prince": 9912,
  "Popcorn": 9913,
  "People": 9914,
  "Promise": 9915,
  "Pretty": 9916,
  "Presently": 9917,
  "Pigeons": 9918,
  "Piano": 9919,
  "Perfect": 9920,
  "Percy": 9921,
  "Paws": 9922,
  "Patch": 9923,
  "Park": 9924,
  "Paper": 9925,
  "Papa": 9926,
  "PO": 9927,
  "POP": 9928,
  "Ohhh": 9929,
  "OKI": 9930,
  "OKIE": 9931,
  "OKIES": 9932,
  "Oysters": 9933,
  "Other": 9934,
  "Ooh": 9935,
  "OU": 9936,
  "OOKIES": 9937,
  "Nearby": 9938,
  "Nutty": 9939,
  "Nobody": 9940,
  "Nine": 9941,
  "Nice": 9942,
  "Newspapers": 9943,
  "Never": 9944,
  "Navy": 9945,
  "NO": 9946,
  "ND": 9947,
  "NA": 9948,
  "Morals": 9949,
  "Missile": 9950,
  "Marriage": 9951,
  "Mouse": 9952,
  "Mother": 9953,
  "Moppy": 9954,
  "Mo": 9955,
  "Mix": 9956,
  "Mind": 9957,
  "Mina": 9958,
  "Math": 9959,
  "Match": 9960,
  "Marry": 9961,
  "Mail": 9962,
  "Lilah": 9963,
  "Lets": 9964,
  "Lung": 9965,
  "Luke": 9966,
  "Looking": 9967,
  "Longhead": 9968,
  "Lion": 9969,
  "Linda": 9970,
  "Liam": 9971,
  "Lenny": 9972,
  "Left": 9973,
  "Lawyers": 9974,
  "Late": 9975,
  "LTHY": 9976,
  "Keith": 9977,
  "Kiss": 9978,
  "King": 9979,
  "Kick": 9980,
  "Katelyn": 9981,
  "Kanga": 9982,
  "Jumping": 9983,
  "Jojo": 9984,
  "Jessica": 9985,
  "Jumpy": 9986,
  "Js": 9987,
  "Join": 9988,
  "Jilly": 9989,
  "Jamie": 9990,
  "Its": 9991,
  "Isn": 9992,
  "Instinctively": 9993,
  "Increase": 9994,
  "Introduce": 9995,
  "Immediately": 9996,
  "Ice": 9997,
  "ITH": 9998,
  "Hopper": 9999
}