#version: 0.2
h e
  t
  a
  s
  w
n d
 t he
e d
  b
 t o
 a nd
  h
  f
i n
 w a
  T
i t
r e
o u
  l
  d
  c
  p
a y
 wa s
e r
  m
o m
  he
 T he
i s
  n
o n
a r
i m
 s a
l l
i d
 h a
  g
  S
a t
in g
o t
e n
a n
l e
o r
i r
  H
a m
e t
  it
 t h
i g
 The y
i l
  in
 H e
 p l
  "
o w
v er
r i
  u
u t
 d ay
 sa id
it h
p p
 pl ay
 b e
O n
 w ith
  o
  y
 he r
  r
o o
k ed
c e
 h is
 S he
  I
l d
 s t
 T im
k e
  e
n t
c k
 b ig
ver y
 y ou
v e
s t
 ha pp
  on
e nd
u n
a ll
il y
ri end
 f riend
  L
 u p
 the y
 wa nt
 w e
 ha d
 n ot
he r
 l i
it t
 d o
 o f
  B
a d
e s
 happ y
  M
en t
  very
 th at
On e
 sa w
 m om
ou ld
' s
s e
 f or
itt le
 l ittle
 s o
 s he
 s h
im e
  k
 t ime
 n e
 n am
c h
 the re
. "
ou nd
 b o
 nam ed
 L ily
ir d
 s m
 want ed
 b ird
 T om
v ed
 we re
 b ut
T he
 friend s
! "
ou t
h t
e l
a ke
a l
 a n
 to o
id e
 he l
On ce
 w h
 hel p
u g
om e
 w ent
 a ll
 I t
  A
 l oo
  is
 up on
 l o
u e
t er
r y
o re
i nd
g et
 f un
 to y
i ll
a ck
get her
 a t
  j
 a s
 d id
am e
  re
 to gether
u r
 c at
r a
 do g
 s e
l y
 t re
oo d
 g ir
 c an
i c
 b all
m y
 gir l
 c ould
ar d
t ed
 h im
 the ir
e c
ar k
 r o
w ay
 k n
 play ed
? "
he d
 f r
a in
he n
 l e
  out
u m
' t
a x
 g o
 the m
 a re
 bo y
 sa d
u l
ou g
 ha ve
 tre e
 c l
 lo ved
ot her
 b ack
 loo ked
 s p
 f ound
ow n
on e
 M ax
 m e
 s c
 m an
a re
 st ar
 S ue
h ing
s ide
 p ark
on g
o p
f ul
 be c
 li ke
 w ould
 li ked
el t
r ound
  One
 f elt
ig ht
 f a
 B en
 l a
  W
e ll
 m ake
 B ut
Y ou
 as ked
 ne w
i ce
il ed
s s
ar ed
a g
 S am
oug ht
 se e
om et
 a l
 star ted
 a g
 c ame
 n o
 sm iled
 c ar
  other
ri ed
 s omet
 g ood
 s ay
 b r
 sm all
ad e
p ot
o b
ing s
 w or
 a way
a b
ou se
 f ind
u s
 e x
 fr om
 p ut
t y
 th ought
 wh at
 m ade
en ed
 play ing
i e
 h ome
k ing
 wa l
a ch
 somet hing
i a
i le
 e very
 r an
 S pot
 ag ain
  F
 c o
a ve
u c
ar n
 bo x
 d own
d d
 toy s
oo k
  J
 p r
 too k
 s w
 s ome
i f
 la ug
ou d
u st
e w
 s un
 a round
n y
 sc ared
 li ved
 le arn
 w ill
 m y
 f l
u re
 you r
i ck
re t
e p
 h ouse
 w hen
  You
 th ings
 b l
, "
an k
u ck
 the n
pp ed
 M ia
is t
T h
 b ot
 a b
is h
 wh o
 g et
 kn ow
uc y
 f e
a s
 t ried
 g ot
 kn ew
it ed
 l ot
u ch
 say s
all y
a p
 in t
 c h
i ve
 r ed
T im
nd er
um p
L ily
 p ret
ou s
 ab out
 c are
f ter
 d ec
 S o
 o p
f e
 loo k
  D
 man y
u se
 u n
 m ore
is e
way s
  E
n n
 ex c
 M om
 al ways
 p ic
 p o
â 
 be st
q u
 an y
 sh ow
 bot h
 L ucy
it e
 ro om
 h ug
a ce
er s
a use
 int o
 wa ter
 bec ame
 out side
 learn ed
 laug hed
u dd
 d ad
id ed
an t
 bec ause
 on e
 g re
 p e
 dec ided
 A nd
p r
 exc ited
  v
Y es
 n ice
 h o
nn a
  ke
 e at
 s or
 th is
ar a
 j ump
 l ong
 fe el
The y
 B ob
T om
 m o
 to ld
 r un
u ll
in k
 s ur
 ro ck
 in side
 pret ty
 s l
 s k
le w
in y
 t ake
 a m
 g ave
 sur pr
 fa st
 e ach
 to w
ou r
es s
r o
v en
g ed
 sor ry
 ne ed
  or
 m uch
 th an
ur t
 h ow
is ed
 st r
ab le
 u nder
W h
o g
g e
 k ind
a nd
 g ra
 A my
im al
v ing
 an imal
f t
 t a
B ut
 f ood
et ter
C an
 wal ked
 W e
 t r
 wa t
 ha nd
 o ld
 H is
 l ist
 h ig
f f
 j ust
 cl o
 fl ow
  en
r om
 c le
c hed
 did n
ur n
  ide
ec i
M om
a se
 t ry
 ide a
 d an
i on
he re
 sk y
 it s
eci al
 sp ecial
 ne ar
 f lew
 u s
 A nna
 t w
 happ ened
p l
g ry
 f o
in e
 f i
 s n
 T h
Th ank
  if
 c ake
b er
 f ish
 animal s
 st or
 o ver
 b ug
l f
 he ard
at e
 care ful
e x
 c om
udd en
r m
 b etter
 lot s
 b y
 l et
 h ard
 w ind
 ne ver
 h urt
 be ar
 sh are
op le
 E very
 d re
udden ly
m ore
 any more
 e ven
 t e
or t
 t al
p ec
 f ly
 S ara
 sa fe
 lo ve
ad y
 b u
 e nd
 d on
  K
 f ore

 

 g ive
 pe ople
 a fter
 cle an
u ff
 pr oud
 op ened
b ed
' m
 hig h
 g r
 f am
 b ad
 do or
 surpr ised
 The n
itt y
a k
 t urn
A s
 g l
ag e
 F rom
um my
oug h
 g round
 cl im
 H er
 than ked
  im
 W hen
i z
 bl ue
 c all
 b ook
k ay
ard en
 g arden
il d
 f ar
 m a
 e ver
 wa y
pec ted
 hug ged
 c he
 sh iny
 co l
 pic ked
L et
 sm ile
 m ag
 l oud
 c u
 of f
 sh ould
 c ome
 I n
ex pected
 un expected
x t
 ne xt
 st ick
 pl ace
 wal k
  N
t ure
 fam ily
he s
e m
  qu
 col or
b y
  P
 st ill
i p
 u nt
 str ong
 gre at
 bo at
 a pp
le s
 ha t
o y
 happ ily
 br o
oo l
 unt il
 jump ed
 tow n
 c a
 fr og
d y
 k id
 help ed
 S ally
 fore st
i es
 st o
or n
c t
 do ll
a ut
 s qu
ar y
 K itty
 be aut
 list en
 show ed
 m et
 n ow
N o
uff y
 p ar
 mag ic
o on
ra w
 wh ile
 op en
 stor y
i ful
 re m
 pic ture
le ase
 beaut iful
 b ra
t h
b it
 so ft
H e
ab bit
 st ay
 could n
 clo s
o ck
 call ed
us h
an e
 y ummy
 kid s
p t
I t
 r abbit
 wat ch
W hen
 sl ide
l uffy
 every one
 at e
 p a
 be ing
 wa rm
 w o
 fa ce
 f in
ill y
 d e
 sto pped
 a d
re l
 t ra
 th re
 flow ers
 so on
 c ry
is s
 tw o
v ent
f ore
 im p
 an gry
 ke ep
 he ar
un ny
dd ed
 st ore
 c re
 f ell
is hed
 lo st
 le ave
ir ed
 r ain
 L et
se lf
 p ain
 ha ving
Th at
 fi x
 c ook
 F luffy
 W h
ow l
d ay
 no dded
  C
s o
e ar
 sa t
 bra ve
 w here
o h
 al so
â 
 y ell
 mom my
â 
B en
 be fore
oh n
 g ame
 sa nd
 hand s
 N ow
 t ired
u d
g er
ir st
 me an
 b re
g an
Wh at
 wor k
H i
 u se
 no ise
 he ad
b e
 ke pt
 fa v
L ook
 o kay
b le
 p ie
 m on
 ha s
  z
 s ing
 re al
 gre en
 e y
 c ou
 bl ock
 wa it
ir rel
  G
 th ink
 b ed
an ge
The n
 squ irrel
 other s
 cat ch
  R
em ber
 dre ss
j oy
 sun ny
 sh ared
 fun ny
  â
a z
 loo king
 d uck
it c
 po nd
 d r
at h
 m ess
 ho le
 b unny
  own
 ex pl
 be h
u it
 us ed
 p ull
 th r
ell o
ec t
H ello
 go ing
 en joy
 M r
  Can
 D o
or al
le ep
 ma king
 d if
itc hen
 r ight
 k itchen
 sw ing
 fav or
st er
e et
 wor ked
 t able
 rem ember
 favor ite
 bird s
  our
 mo ve
 c on
n g
u b
 j o
 ag re
n ing
 tr uck
 v o
 ey es
 J ack
 m oral
 l ady
 cu ri
im es
 fl o
 c ut
ug ht
 s ound
t hing
ll y
W e
A fter
 curi ous
 y ard
 t all
 cl a
m a
ap er
 clim b
q ue
 imp ort
 f irst
  ice
 tal k
 ad vent
i ous
 flow er
il a
 as k
 t ri
 par ty
 for g
 b ag
 d ir
 wat ched
i ed
ay be
 import ant
 block s
 b ab
 Th is
l ed
 do es
 he re
 to p
 gra b
 co ld
t ing
 ta il
 st e
 d is
k en
 ha ir
 be l
d ed
A t
 s ong
 p ick
z y
 yell ow
 gra ss
 d raw
ll ow
 w r
 agre ed
 h ill
 sw eet
 m ouse
 br ight
 be gan
ig n
 h un
 cl oud
fe re
 re st
 bab y
a f
 n ight
 F in
D on
 ta st
 dif fere
 st op
 wal king
ed e
W ow
A nna
 vo ice
 s leep
 Mom my
us hed
i ent
c ed
 laug h
S ara
 sh ar
 h op
 S uddenly
c ked
 to uch
pp y
 h id
 cl ot
o om
a ched
 fo llow
 surpr ise
 pie ce
c o
M ax
 p lease
 feel ing
 differe nt
 dan ce
 an other
 leave s
Wh y
 pr om
 c ried
 hun gry
 r ace
 g one
 sh out
 need ed
a ir
 fa ir
 clos er
 b us
â 
 th ing
 p er
 flo or
 far m
 c r
 tre es
is y
S o
 help ing
 sw im
 h ot
 beh ind
 t ell
 re ad
 list ened
 advent ure
S uddenly
 sh o
 d ark
b o
 wor ry
 f ull
 clim bed
by e
 a c
 A s
  ri
ke y
er ed
 cou nt
S am
 w ood
 p aper
 Th at
a v
 t iny
 m ust
 pr in
 friend ly
 fi re
el y
at er
 turn ed
 s it
 app le
 D ad
 re ached
 ho ld
 bro ken
 re pl
 tre at
w here
 p ink
 color s
g ing
 sm ell
 re ady
 A ll
as h
 se es
 d el
 be en
 wo nder
 ro ll
S he
 wa g
 on ly
 f ight
 wind ow
 f all
 ca st
 Every one
r ed
 good bye
  owl
ic ed
S ue
 try ing
 h ide
 p ushed
 d in
  O
 look s
 b it
ow er
' re
 tra in
 per f
 mom ent
 d ri
 cre am
 car s
s h
 a r
 w ise
 run ning
 gl ad
 do ing
 sl ow
 re ach
 d one
 b ar
 we ar
 pret end
 l ess
 w et
 repl ied
 l ight
 dre am
 st uck
 p u
 p ot
 expl ore
m an
 sc ary
at her
nt s
av y
 nam e
I n
 clo se
 ball oon
 li on
 J ane
 bu ild
 pain t
 ne st
 d ro
 bot t
 am az
 bu y
and y
 wa ll
 r a
 c ool
 s ure
 m um
ie ld
u p
 s et
 but ter
O h
 m iss
 Tim my
or m
 bro ke
 A fter
i ke
M ia
one y
o e
at ter
 shout ed
 somet imes
 fr uit
 com ing
H er
 thre w
 sw am
 sn ow
 cla pped
 a ir
iz ed
 j ob
 con t
 Bob o
udd y
am es
a isy
 under st
 turn s
 th ank
 b lew
out h
 sp l
 remember ed
 m outh
 he avy
ar t
 la nd
 dir ty
d er
as k
 grab bed
 book s
uck y
at ion
 le ft
 J ohn
nd ma
 thr ough
 jo in
 L ila
 pull ed
 not iced
 fo x
ro om
o lly
g g
 pl an
 p en
 enjoy ed
p e
 wor ld
 thre e
 m us
 clot hes
 ch ild
n er
is ter
ing in
" .
 wh y
 stay ed
 m ight
 less on
 g ent
 de ep
 cook ies
ap e
B ob
 wh ite
 w in
 wa ved
 p ig
 ho pped
 g if
 fin ished
 f ill
 butter f
O kay
 picture s
 le af
 br other
 sp ot
 sh op
 sc re
 gr ow
 cast le
Th is
 color ful
L ucy
 wood s
 qu ick
 ke y
J ohn
ull y
as ure
 r ound
 every where
 The re
i et
 forg ot
 a rm
p le
a c
 qu iet
th y
 w ished
 p are
 br an
 any thing
z z
ss ed
l c
im i
ic y
f ully
 g u
 din ner
le ss
 him self
 B uddy
 B illy
d s
 mus ic
 he ld
 al one
 s ister
 r ide
 mon ster
 g ames
an g
 wr ong
 wa ited
 e m
u ed
in s
i x
 se a
 Sara h
 se en
 bre ak
 br ought
t on
ra g
 sn ack
 re l
 mon key
r ot
a ss
 we ll
 pl ant
 butterf ly
itt en
c le
 like s
 j u
 Wh at
 e gg
 dan ced
 d ry
 bott le
  que
 y ear
 want s
 be ach
ce ss
 fair y
r ow
A my
 make s
 cu p
 be e
 at t
 D aisy
s c
in i
 prom ised
  ve
p h
 follow ed
 care fully
ri es
e e
 quick ly
 f ield
 In side
n in
 to day
 T o
 E m
 tow er
 pare nts
 c ra
 big ger
  Z
S pot
F rom
 g i
 c e
o ve
e y
ard s
 n ap
 gif t
 dan ger
on ely
an a
 s illy
 s ign
 l onely
 f re
it ch
. â
 re ally
 or ange
 k ite
 fast er
 So on
 some one
 sm art
 M imi
o s
c y
 with out
 t ight
 sp r
 po l
 p re
 m ar
 br own
 d i
 wag ged
 w on
 tal ked
 piece s
 h it
 en ough
 dr ink
at ed
 sh in
 ma il
 f ur
 eat ing
 c ro
 b ath
re n
a ught
D o
 tal king
 perf ect
 p ur
 l ake
ell a
 shar ing
pp er
f ish
en ce
 underst and
 ro ad
 m ix
 cont in
 bran ch
ou p
 bel ie
itt ing
am ed
 w ish
 p et
H is
 real ized
 k ing
 a nt
g ly
 rock s
 po in
 li ving
 e ar
 child ren
orn ing
i ver
 we lc
 m orning
 j ar
ou n
ar m
an ce
 y es
 st one
 s ide
 n um
 fly ing
 fill ed
 doll s
 del ic
 c ow
z e
 wor ried
 thr ow
 p at
 own er
 ju ice
 contin ued
 b uck
 b ike
ra ct
pp ing
 smile s
 p h
 fin ally
 com p
 car rot
 Tom my
ll a
e o
am p
al thy
 st re
 app les
b r
 wor ds
 sa il
 ri ver
f ort
a st
 s itting
 cry ing
 but ton
 bar ked
 B l
 A t
Mom my
 sa ng
 hig her
 b owl
us ed
un ch
i ch
e ad
 wh ist
 tast y
 shar p
 p udd
 fre e
 bl ank
 ball s
 J oe
 welc ome
 p ill
 m at
 le g
 l etter
 ask s
ve l
ld er
en ny
J ust
 shin ing
 run s
 m ine
 happ en
 clos ed
 blank et
st ead
ck et
 v is
 laug hing
 every thing
 ca ught
 c andy
ve s
at o
 roll ed
 m other
 f an
 e l
 b or
  -
 co at
 G ra

  
or d
ir t
 st and
 se c
 hear t
 danger ous
 d rag
 b one
s w
 mo ved
 an sw
s et
is es
g y
a il
M aybe
 w he
 e le
 str ange
 star t
 sec ret
 f it
 el se
un g
ot h
ll ie
 ch air
 b oun
ct or
 w ore
 tr ou
 pa w
is k
 sing ing
 ro pe
 p ers
 b and
id ge
am a
 tre asure
 sa m
 sam e
 p ower
 m ud
 m ad
 L eo
is a
bo ard
Wh ile
J ack
F in
 gent le
 c orn
ud e
 wo ke
 vis it
 her self
u nt
n ey
i re
 sh y
 se ar
 dro pped
 buck et
 belie ve
 Th ank
s p
P lease
 sp oon
 no se
 drag on
 Bl ue
o st
iz z
 think s
 cook ie
isk ers
 sw ings
 p ush
 l unch
 get ting
 bel ong
as ed
 to uc
 sh ook
 cut e
 c ard
 bl ack
 b ite
urt le
ph ant
o l
! â
 se at
 s oup
 rock et
 li ve
 k itten
 c raw
 slow ly
 sh r
 b en
 B ella
c ing
c er
ask et
 ta king
 m ark
 j our
 hop ed
 hold ing
 e as
 bo ss
 b asket
 F red
m ed
i ble
 w ild
 v ill
 u gly
 treat s
 touc hed
 m oney
 j oy
 day s
 M aybe
th day
our se
ir thday
ch ool
L ila
 year s
 s chool
 in c
 fore ver
 dir t
 delic ious
 c ourse
 ar ri
 tw ins
 t urtle
 str ing
 sp o
 k iss
 gr ay
 S p
izz a
a pp
 te ac
 sh ake
 pu ppy
 j e
 feel s
re ss
il ing
e st
 w ra
 she ll
 l ate
 farm er
 che es
 car ry
 b ush
 arri ved
st ing
o se
in ed
e re
ay on
' ll
 to m
 stor m
 sho es
 pudd le
 pu zz
 m ed
 int ere
 fix ed
 f ew
 chees e
l ower
f used
 p op
 m ist
 gre w
 d ist
 bus y
ump y
ig h
ed dy
 snow man
 sand w
 pr ob
 hid ing
 amaz ing
 Wh iskers
b b
 wor m
 was h
 r ude
 que en
 prom ise
 intere sting
 he althy
 cr ayon
 b irthday
l ing
He y
 you ng
 wonder ful
 whist le
 she lf
 pl ane
 pill ow
 pat ient
 p ile
 gi ant
 C h
  ign
le m
ig g
i er
 wa r
 teac her
 prob lem
 n ut
 mo on
 li fe
 in v
 cra b
 b ow
 D ucky
ou nt
e ared
 te ach
 sh irt
 re s
 prin cess
 par t
 pa st
 ne ck
 tow ards
 sn ake
 l ay
 ele phant
 L isa
ro ss
oo f
il k
i pped
 w ings
 vill age
 sm o
 se ed
 s er
 po cket
 m ilk
 land ed
 do ctor
 dis app
 cre at
 ben ch
 amaz ed
 ab le
 Em ma
or s
om an
le br
ir r
fort able
ell y
 w oman
 s uddenly
 r ub
 p izza
 dro ve
 co ll
 che ered
 ch ick
 ce lebr
 bre ad
ri ll
id er
S t
 ste pped
 fo ot
 dri ver
u ally
ount ain
o nd
aught y
O K
G ood
 stre et
 stor ies
 sa ve
 n aughty
 la w
 hug s
 h oney
 car t
 Gra ndma
s y
ig er
i an
e k
L ater
K itty
 z oom
 so ck
 sl id
 p ath
 dad dy
 c ave
 b ought
 ac ross
 A nn
if e
c hes
Fin ally
 up set
 th in
 mo st
 fight ing
 duck s
 br ing
 D og
er t
 ro b
 co ver
 be ak
et er
ep end
en s
B e
 z oo
 pur ple
 power ful
 pe ace
 num ber
 m ind
 gr umpy
 M olly
ul ar
t urn
oo p
b ow
 th ough
 sp in
 s uc
 love ly
 for get
 be ll
 Mom o
 Fin ally
oo se
iz zy
er ry
 whe el
 was n
 tri p
 sh ap
 sa l
 re turn
 p our
 no ises
 a ct
up id
n ot
 spl ash
 smell y
 see k
 sa ved
 sa ck
 p ool
 jour ney
 fan cy
 bug s
 boss y
 b at
it y
O f
 sp ider
 shap es
 puzz le
 n et
 forg ive
 f ence
 d ish
 cloud s
 can not
 b an
y m
w ard
op h
T o
 wor king
 st upid
 sound s
 mess y
 me et
 eas y
 c ap
 br ush
ll o
e on
N ow
 v al
 ste al
 rob ot
 miss ed
 m in
 gra ndma
 fin ish
 dri ve
 d es
 b a
 any one
 T iny
o cked
k in
S ure
? â
 t ie
 sp ark
 pig eon
 or gan
 j elly
 help ful
 gl ass
 clot h
t o
oom y
m on
er y
bed ient
am ond
al m
 un k
 t eddy
 ro d
 rain bow
 put s
 po or
 o bedient
 not e
 mist ake
 h or
 f ake
 di amond
 unk n
 tow el
 t iger
 o b
 magic al
 li ft
 hug e
 gr ate
 gl ow
 ex p
 cla ss
 c ir
 al ong
 To gether
 J ill
get able
b led
 who le
 ve getable
 unkn own
 take s
 s ug
 ph one
 p ack
 l ater
 hop e
 grate ful
 adventure s
 M ark
  On
n an
lder ly
iz e
c om
 wonder ed
 watch ing
 tast e
 spl as
 s el
 ro se
 pers on
 p an
 o ven
 lo ck
 f ing
 em b
 e lderly
vent ually
ion s
as p
 song s
 s u
 pot ato
 p ract
 le mon
 jump ing
 ign or
 arm s
u ce
irr or
a ur
 sel fish
 sc ar
 poin ted
 p in
 m irror
 long er
 l ine
 hor se
 c oo
 b ark
 a v
sc ape
or k
ic ine
co l
S ally
D ad
 z ip
 w is
 she ep
 see med
 r ough
 on to
 med icine
 dr ank
 cou ch
 com es
 J ust
ew el
e ver
ar ra
 wra p
 su pp
 s uch
 s ick
 leg s
 j ewel
 in stead
 he llo
 face s
 f il
 emb arra
 con fused
 boun ce
 B ear
w ork
un a
p ty
p ill
pill ar
e my
d ile
co dile
 w ide
 st ep
 sor t
 my ster
 la st
 gent ly
 em pty
 e ag
 dan cing
 ch o
 car ried
 S t
 B u
m ent
b all
air s
S oon
 wo lf
 wa ve
 tri es
 near by
 m aybe
 hat s
 give s
 fe ed
 c alm
 b al
y ard
pec t
i pp
el p
az z
ad ow
 t ent
 sp e
 smo oth
 jo ke
 g ather
 cro codile
 ch ange
 back yard
 M ary
 J enny
 H ow
 Dog gy
um e
u dy
 too l
 star s
 st raw
 sp icy
 so ap
 sandw ich
 r ad
 pretend ed
 pr ot
 gu ess
 f at
 dog s
 d izzy
 cle ver
 build ing
 as h
 C ome
orm ous
ber ry
 trou ble
 stick s
 spr ing
 sleep y
 her o
 fe ather
 f le
 en ormous
 b arn
 b ake
ul t
n ess
if f
d en
H elp
 wait ing
 scre amed
 s uit
 ri ch
 r at
 plant s
 l ucky
 d ug
 co st
 answ er
r ated
on t
o ppy
A nd
 we ak
 snack s
 sear ch
 sa us
 que st
 hid den
 go ld
 fe ar
 che w
 c ri
 br idge
 E lla
 B r
ut e
ar ge
St op
M y
C ome
 te st
 st udy
 prin t
 pick s
 peace ful
 m atter
 kn ocked
 j ug
 fr ont
 e scape
 dec or
 d ig
 chick en
 W ith
un k
sh ine
or row
one st
m er
it ing
ie ved
bo x
 tri ck
 tom orrow
 ste ak
 spr ay
 smell ed
 scar f
 re c
 place s
 k ick
 im ag
 h onest
 cr own
  ent
ust rated
m b
i v
i o
h ost
er pillar
al k
ain ed
ad der
 se ll
 re g
 h ay
 h ar
 coll ect
 co zy
 ch ased
 cat erpillar
 The ir
 P lease
 J im
  '
um ble
uit ar
m ing
in o
ight ened
A re
 te ar
 sw an
 squ are
 so l
 sm iling
 se al
 l arge
 l adder
 g uitar
 g host
 fr ustrated
 fr ightened
 clo ck
 cle ar
 ch ase
 app eared
 M y
 Em ily
on es
o ld
ic ked
bb les
al ous
 yell ed
 vegetable s
 un cle
 st ret
 p ay
 or d
 not hing
 new sp
 me asure
 kn ee
 je alous
 dre w
 dr um
 be an
 R emy
 M ama
 Dad dy
ung le
ot o
ir p
ge st
ens ive
ach t
 your self
 y acht
 wear ing
 v an
 rel ieved
 pe ar
 no isy
 mo d
 love s
 li z
 j ungle
 expl or
 exp ensive
 eag er
 de st
 che st
 celebr ate
 bo dy
 B unny
t en
op ard
e b
 w ip
 swim ming
 st ir
 st amp
 sc are
 s our
 prot ect
 pol ice
 pl ate
 pe pper
 le opard
 jelly fish
 j og
 fur ry
 fo ld
 fe et
 draw ing
 co in
 cat s
 ash amed
 a nts
 T V
 C at
ract ive
orm al
n ic
n ed
ir it
d om
b or
 wa ke
 tr ust
 thought ful
 r u
 newsp aper
 m ountain
 hair y
 h arm
 go es
 gl ue
 g igg
 g en
 embarra ssed
 dis co
 c age
 as king
 ac orn
 S omet
  3
r ue
l a
im p
fe e
f fee
el ery
Tom my
 y og
 w itch
 to ug
 so ld
 r ug
 pic nic
 pa ss
 n ormal
 la b
 fl ag
 c elery
 att ractive
 Wh y
ut om
utom ob
utomob ile
u al
le t
ke ep
iss ors
i que
c orn
c ient
 wa ff
 un ique
 toug h
 sp ill
 sa f
 rem ind
 r ing
 prin ce
 pr un
 mo ving
 might y
 la zy
 inc red
 ha ng
 h oop
 gen er
 fruit s
 fing er
 co ffee
 che er
 care less
 bec ome
 an cient
 G o
 Ben ny
ub b
rill i
r ob
j ect
 wr ite
 underst ood
 t id
 sw ord
 sun shine
 sun f
 st ood
 sc issors
 r h
 r are
 pol ite
 p it
 liz ard
 incred ible
 h ur
 gener ous
 end ing
 clean ed
 b rilli
 ar row
 R ex
 O llie
 I f
 E ven
 Bob by
keep er
ill a
g en
f ra
a king
 tr ue
 tast ed
 suc cess
 st ri
 squ ash
 saus age
 pr o
 p ow
 mat ch
 mark et
 k icked
 h unt
 brilli ant
 a utomobile
t ress
l ves
fra id
aught er
ang le
H ow
 tid y
 te a
 st uff
 sal ad
 pr ay
 mat tress
 know ing
 g un
 g ate
 de ad
 crayon s
 cover ed
 c ush
 bl ow
 bl oom
 advent ur
 a fraid
 P e
 J erry
 D on
v ous
ush room
rob e
ro y
ic t
ab in
M olly
He re
 would n
 we ird
 the se
 sunf lower
 shell s
 ne igh
 m ic
 dis g
 dest roy
 craw l
 count ed
 com b
 cl ay
 cl ap
 cir cle
 carrot s
 c abin
 beh ave
 bath room
 adventur ous
 L una
 In stead
ust ing
ul if
ud ge
op e
l and
in al
com fortable
b ers
 un comfortable
 th ie
 res pect
 rel ax
 perf orm
 mo le
 ignor ant
 h umble
 fr ame
 fo lder
 disg usting
 J en
  ind
us ual
ug g
re lla
p es
n et
mb rella
is p
in ary
id ent
ic ult
i able
f icult
er a
ag es
a le
M um
 w ing
 us ing
 un usual
 u mbrella
 shr imp
 rel iable
 paw s
 myster ious
 mag net
 m ask
 ho se
 gl ove
 fr idge
 en g
 dif ficult
 d aughter
 cro ss
 ca ulif
 c and
 bor ing
 balloon s
 bal ance
 as leep
 ad m
 Somet imes
 B e
u le
os aur
o ot
ig inal
ig hed
et h
To gether
Sara h
 your s
 wh isp
 un l
 tw ist
 t ape
 sto ve
 splas hed
 s que
 pow der
 on es
 o y
 n er
 mom s
 j udge
 h orn
 fam ous
 f is
 dist ur
 disco ver
 din osaur
 be es
 Do lly
t t
tt i
s ent
irst y
he tti
f ted
er ries
c il
ag hetti
af fe
a w
In side
 wag on
 tra vel
 spo iled
 sp irit
 sp aghetti
 sh ip
 rad io
 r oof
 pour ed
 pen cil
 ord inary
 or iginal
 num bers
 ner vous
 mo v
 m ule
 m ach
 kn ight
 is land
 ho pping
 harm less
 gu il
 fr own
 egg s
 d ough
 cr ack
 corn er
 clos et
 ch alk
 bre ath
 ban ana
 b erries
 an g
 Sam my
 S ome
ow ed
or illa
in a
epend ent
e ze
der n
B illy
 trou bled
 tri angle
 thie f
 th ick
 sug ar
 st age
 sear ched
 sail or
 s ink
 re sc
 qu it
 pre sent
 p al
 mo dern
 lo g
 le ad
 ind ependent
 creat ive
 co al
 ch an
 caulif lower
 c op
 bar ber
 b ull
 b in
 Wh ile
 Br own
  icy
re ad
itt er
b ble
at or
an y
Tim my
 un iver
 ta ken
 sp read
 sa iled
 pain ted
 p ri
 jo lly
 inv ited
 hear s
 gl oomy
 g ym
 g orilla
 for k
 eng ine
 d ive
 comp ut
 answ ered
x ious
x e
it her
in ess
g u
g round
er c
d le
col ate
at ch
arm ing
ad o
a ff
G o
E very
 wh ip
 straw berry
 stand ing
 sp ent
 sh ape
 scre am
 sa uce
 p ant
 m op
 lo se
 kn ife
 h ive
 guil ty
 fl ute
 clean ing
 cho colate
 ch arming
 c her
 bo ard
 b atter
 an xious
 a xe
 T rue
 S n
ubb orn
se lves
s er
ra ge
op l
om es
her man
er opl
c ident
atter n
al s
a ving
M ama
 wh ich
 was hed
 waff le
 use ful
 t ied
 st ubborn
 small er
 seed s
 return ed
 pal ace
 p attern
 ob ject
 im pr
 help s
 fis herman
 fil thy
 f ine
 dec ide
 d ull
 cost ume
 c ries
 c one
 boy s
 b urn
 ang el
 a eropl
z zy
ul b
m ost
irp y
ino cer
inocer os
il t
am ent
J ane
 val u
 ta ught
 t un
 t imes
 t ank
 sl ipped
 ser ious
 s ighed
 rh inoceros
 ra ft
 pant s
 p ump
 nap kin
 mach ine
 li fted
 learn ing
 laugh s
 h omes
 ex erc
 cre ate
 cast les
 bor ed
 aeropl ane
 a unt
 P oppy
 M any
rag ile
or ry
o c
n ament
is ted
ink y
id dle
es day
ag ed
 wis hes
 valu able
 thank ful
 spill ed
 sho ot
 sh ore
 sc r
 po em
 past a
 or nament
 make up
 loud ly
 lot ion
 hunt er
 gra nd
 g oose
 g ar
 for ward
 fear ful
 f ool
 explor ing
 dr op
 cush ion
 craw led
 count ing
 com ple
 ch oose
 al most
 ac cident
 N o
 Bu zz
use um
r in
op ter
ic opter
i pper
a ppy
G ive
F luffy
 wa nd
 w ool
 u r
 th irsty
 t ire
 st ones
 spot ted
 sp ace
 sol ve
 show ing
 sc atter
 pop corn
 play ful
 mov ie
 me adow
 m ushroom
 m useum
 lo cked
 je ep
 imp ress
 hel icopter
 fool ish
 f ragile
 do ve
 di ary
 decor ate
 comp et
 com fortable
 chan ged
 bu ilt
 bott om
 b ulb
 att ic
 Sp ike
 J azz
 B ird
  U
y al
w eet
ri ble
pr on
p ort
p ack
ion ary
ict ionary
I f
 w ife
 v ide
 te eth
 t er
 swing ing
 s le
 s il
 ro ar
 pers ist
 m iddle
 m el
 m ap
 lo yal
 li cked
 l ow
 kiss ed
 join ed
 happ iness
 g asp
 for th
 find ing
 del ight
 d ictionary
 comput er
 comp ass
 c ase
 bu bbles
 belong ed
 a pron
 Ch irpy
 And y
um sy
r ay
ex t
ent ion
ce let
c ut
 sun g
 strong er
 sh iver
 rub ber
 ra ven
 pop ular
 pain ter
 pack age
 mix ed
 mar ch
 m ug
 live ly
 law n
 lab el
 impress ive
 har sh
 glow ing
 gi ving
 gar age
 f og
 f ig
 e ventually
 distur b
 d epend
 compass ion
 cl umsy
 bra celet
 To day
 B ill
y ing
op us
n el
l ass
lass es
ie w
ct us
ct opus
a pped
 y arn
 v iew
 ter rible
 te le
 t ick
 sung lasses
 st ack
 spe ed
 sp end
 sn ee
 sk ip
 reg ular
 ra ced
 o ctopus
 mod el
 mar ry
 man aged
 le ash
 know s
 ha lf
 fall s
 exc iting
 exc ite
 del iver
 de af
 ca ctus
 ba ld
 a dd
 J ess
 E llie
 A l
ut h
lc an
l ight
et le
 vo lcan
 tun nel
 tr uth
 tom ato
 st at
 st aff
 sle pt
 sk in
 sh ark
 quest ion
 prun es
 oy ster
 no d
 m is
 m ill
 hurt s
 fl ash
 f our
 exerc ise
 coo ked
 che ap
 be etle
 a p
 Sn ow
 O K
y gen
x ygen
ur key
ri ck
r n
our s
ist ol
at ely
Wh o
 we igh
 volcan o
 tow ers
 to rn
 te m
 t ip
 t ask
 sw e
 supp ort
 stret ch
 stat ue
 sp ear
 sleep ing
 scre w
 pump kin
 ph oto
 persist ent
 p istol
 organ ized
 o k
 me ant
 l ying
 j unk
 impr ove
 hand le
 go at
 flo at
 f ather
 en v
 compet it
 compassion ate
 ce iling
 box es
 b rick
 ad or
 ac ce
 M um
x ible
r oph
roph one
ll ip
llip op
le nd
l ace
ipp o
i k
er ce
ang u
S orry
M ummy
 yog urt
 wor d
 wheel s
 wall s
 wa ves
 wa nder
 v i
 unl ock
 tw ig
 success ful
 st ation
 st airs
 so ar
 sn iff
 set t
 r ake
 pa ssed
 nut s
 no ds
 neck lace
 mic rophone
 m ath
 loud er
 lo llipop
 le an
 l it
 l angu
 h ippo
 g um
 fle xible
 fig ure
 fi erce
 depend able
 com pl
 cl own
 b ump
 b itter
 ador able
 Z oom
 Pe ople
 M ummy
z ed
vel ope
ub by
p a
ore s
bo dy
ber ries
as ing
W here
 whe at
 we althy
 way s
 walk s
 vide o
 train s
 tall er
 t urkey
 sn e
 show s
 sh ut
 sh ine
 ru ined
 rod e
 ro ot
 resc ue
 pract iced
 no sy
 net work
 neigh bor
 need le
 miss ile
 mail box
 langu age
 kn ob
 help less
 he al
 hard er
 gu ard
 g as
 ex am
 en velope
 en c
 de er
 creat ure
 coo king
 comple t
 ch ubby
 bran ches
 bar rel
 b ill
 av oc
 al ert
 O w
 Mr s
 He re
 G ive
 F ro
ym bo
ymbo l
u nd
re am
lend ar
l ph
ile t
ig i
i ppy
eb ra
c les
ar rel
an ut
am era
ak y
a id
J im
 z ebra
 y et
 whisp ered
 to oth
 to ilet
 thin king
 t en
 star ed
 spl it
 sk ull
 sh ort
 sh ade
 sc oot
 s ymbol
 s ight
 real ised
 qu arrel
 pur se
 pain ting
 open s
 me at
 m ot
 le aving
 hair cut
 ha m
 gif ted
 gasp ed
 fl uffy
 expl ained
 excite ment
 ear s
 dream s
 do lph
 competit ive
 car p
 cabin et
 ca lendar
 c amera
 S andy
 R ose
 R o
 Fred dy
 B et
ub way
u by
t ime
ot e
o in
in es
il ot
i ence
ht ub
ce ed
ar l
ail able
I s
 when ever
 v ase
 tra sh
 tem ple
 te ase
 t ag
 sun set
 sho e
 scre en
 say ing
 saf ely
 s ubway
 s on
 r ushed
 pro v
 p us
 organ ize
 ob ser
 her b
 feather s
 ey e
 env ious
 enjoy ing
 d eter
 cri cket
 cri b
 ch ores
 ch ain
 c ob
 c ell
 bu ry
 bath robe
 bat htub
 av ailable
 You r
  ed
um b
st airs
or y
l oo
is ion
ik i
id ing
ian o
he ad
asp oon
The re
M r
M e
L ittle
Bob o
 wr ote
 un pack
 tra p
 tr ay
 te aspoon
 sw itch
 stick ers
 slid es
 shop keeper
 she et
 re pe
 re p
 poin ting
 par rot
 not ice
 need s
 n ail
 mean s
 m ild
 l ed
 kn ock
 kind ness
 happen ing
 gir affe
 flash light
 fall ing
 f ountain
 e ither
 draw er
 disapp eared
 deter m
 des ign
 d are
 che ss
 carp et
 c ord
 bor row
 bill board
 Sp ark
y e
ic hes
ess ert
er able
ce an
 wip ed
 we ek
 un ite
 trick s
 to e
 suc ceed
 st able
 sold ier
 sho cked
 sandw iches
 s ke
 rec ord
 r ise
 play ground
 pe bble
 pa le
 p ilot
 o cean
 mis erable
 mel on
 m ay
 l end
 j et
 g em
 enc ou
 ear th
 disapp oin
 disapp ear
 delic ate
 dan cer
 d essert
 c able
 bus hes
 bike s
 big gest
 T weet
 M iss
  ow
us ie
ur ing
our ite
ot ter
le ton
l ow
h ip
ch an
c ream
ap on
and a
The ir
?" .
 we apon
 val ue
 tr ack
 t ummy
 sw ung
 st ud
 spo ke
 sp un
 ske leton
 sho vel
 po ke
 p iano
 of ten
 nice ly
 music ian
 m uff
 it self
 h ut
 friends hip
 fle a
 fav ourite
 fast est
 cl ub
 c ity
 batter y
 bag s
 b ent
 S h
 P rin
 K im
  otter
w ards
ut es
um mer
s ity
rm omet
rmomet er
le ased
im ney
ig gly
gu in
er o
em ent
ch air
c key
ar ry
a it
 vi ol
 tra il
 the rmometer
 tell s
 tear s
 te am
 sug gest
 spark ly
 sk ipped
 ser ve
 remind ed
 re f
 r ag
 pen guin
 p ir
 min utes
 me m
 m itten
 lo ad
 jump s
 ju icy
 ho ckey
 he at
 gr own
 gr oup
 gigg led
 g ear
 find s
 ed ge
 dolph in
 disappoin ted
 determ ined
 cu be
 climb ing
 cl iff
 ch imney
 black board
 W ill
 Jim my
 G igi
 Bu zzy
 A re
z ag
us ia
ul ance
re ssed
on y
ig zag
h usia
f a
ent s
co a
chan ic
c ast
b ulance
ap ers
an as
W ait
O uch
' d
 viol in
 tri pped
 t ub
 sk irt
 search ing
 sand cast
 re ward
 re fused
 quest ions
 qu iz
 pract ice
 po pped
 pe e
 pe anut
 pe ach
 p un
 or der
 ne at
 me chanic
 m elt
 li p
 j am
 help er
 hat e
 happ ier
 hang ing
 gra ce
 even ing
 ent husia
 dream ing
 draw ings
 des k
 cra zy
 cow s
 cheer ful
 card board
 bat he
 ban anas
 avoc ado
 am bulance
 O r
 K iki
v ision
re nder
p ar
n ger
m et
d ge
b by
at ure
a ul
You r
 y ield
 w ire
 w ine
 tele vision
 t ide
 stre am
 st y
 spe ak
 sp ort
 so fa
 sandcast le
 sal t
 s end
 rub bed
 roll ing
 pre ssed
 pick ing
 on ion
 on ce
 o xygen
 mistake s
 miss ing
 mess age
 med al
 light s
 li br
 law y
 inc re
 imp ressed
 hel met
 h ours
 gr owl
 g rill
 g az
 fire work
 f ile
 ear ly
 dist ant
 complet e
 compl ain
 co coa
 cand le
 c amp
 bo ot
 bed room
 b icy
 arm chair
 ab ove
 a w
 Z oomy
 Z ip
 So f
 S usie
 P ipp
 P eter
v ator
urt ain
und ry
ul u
s es
ri c
ous es
oph ie
in ation
he st
col i
c coli
a ked
R e
O w
G ra
 univer sity
 tick et
 them selves
 th ose
 tell ing
 ste el
 st om
 spin ning
 sp ade
 shr ink
 scoot er
 sa ving
 repe at
 rep air
 problem s
 poin t
 po st
 pin ch
 past ry
 p anda
 o il
 me al
 ma ze
 m en
 libr ary
 li e
 la undry
 l id
 kn e
 it ch
 hot el
 h ouses
 go lf
 get s
 fil m
 f ought
 ele vator
 dri ving
 dis hes
 cou rage
 cont ent
 c urtain
 att ach
 ar t
 adm ire
 W iggly
 R ob
 I s
  Y
  V
ur ed
ug ged
u nder
u esday
st ic
r ank
ir on
ig ent
f ast
et e
ell igent
ed y
ec ause
aur ant
all ey
M imi
E m
B ye
A l
 window s
 win ter
 wh ale
 we ight
 th under
 sur render
 squirrel s
 sound ed
 sh aking
 see m
 sc ale
 rest less
 rest aurant
 read ing
 re ce
 r ot
 r iding
 pri ce
 po ked
 old er
 o ak
 n ur
 lion s
 lawy er
 inv ite
 int elligent
 hur ry
 ho les
 head s
 he n
 hand ed
 gra pes
 gather ed
 g ain
 forg ave
 enthusia stic
 door s
 com fort
 cher ries
 call ing
 break fast
 boun ced
 bicy cle
 band age
 T uesday
w eb
st iv
stiv al
om ed
o ved
l ies
i pping
c age
at ient
ar ing
ag re
ack et
ac he
Jim my
J ill
 wra pped
 war n
 v alley
 tool s
 spo il
 sn ail
 sl ip
 sil ver
 sh adow
 ro ared
 rem ove
 pudd les
 pre p
 po le
 par ade
 pa ir
 p apers
 p age
 nur se
 n ature
 n ation
 letter s
 imp atient
 imag ine
 he dge
 grab s
 fe stival
 discover ed
 dis agre
 d ra
 cob web
 co ins
 che ck
 ce re
 carry ing
 bro ccoli
 break s
 bird cage
 ar g
 all owed
 again st
 Z oe
 P olly
 M ar
 Fin ny
 Every where
 E ventually
up er
ro d
nd or
n al
is on
ic le
gg y
at ing
at es
ang es
W oof
J oe
Dad dy
 z ipper
 y aw
 ve ndor
 v ine
 throw s
 swe ater
 sty le
 stick y
 sor ting
 se par
 sand box
 s uper
 s ize
 poem s
 perf ume
 p ort
 p ine
 mot or
 kind s
 jour nal
 j ail
 j acket
 in s
 hur ric
 har bor
 ham mer
 ha nger
 frown ed
 frog s
 f ive
 expl ain
 dream ed
 d em
 col our
 che ek
 ch ose
 car ing
 can e
 al arm
 R uby
 Ow l
 L ulu
y ear
ver se
ump et
um bled
re ady
ol og
n ight
la ud
l p
l oe
he lf
he art
ff ic
ch or
ast ic
arl ie
D id
, â
' ve
 we ep
 wall et
 tr unk
 tr umpet
 to ast
 stret ched
 stom ach
 stir red
 shake s
 sett le
 s ummer
 s udden
 rem ain
 ra il
 pray ed
 per m
 pare nt
 met al
 mar ched
 mail man
 m ention
 listen ing
 king dom
 int rod
 in se
 in k
 ignor ed
 hurric ane
 hold s
 grace ful
 gra pe
 fire man
 dist ance
 cool er
 com f
 chick ens
 che cked
 cere al
 c ur
 books helf
 blue berry
 basket ball
 b ase
 ap olog
 any way
 an chor
 al ready
 al ive
 air port
 accident ally
 acce pt
 a head
 S que
 S m
 Pipp in
 P andy
 He lp
 Bet ty
  iron
st ers
l ter
g ie
bb on
amp oo
ag gie
ac hes
N ext
L isa
D aisy
B ecause
= =
 yog a
 wip e
 wag s
 ve h
 tw isted
 to ur
 sweet ie
 sweet heart
 swam p
 stri ke
 spot s
 snee ze
 sn ap
 smo ke
 sh ampoo
 s ent
 ri bbon
 rest ore
 res ist
 reg ret
 pus hes
 prov ide
 proud ly
 pee ked
 pa cked
 p itch
 off ice
 off ered
 no body
 myster y
 muff in
 mod est
 mem ory
 m all
 li ck
 le ak
 l ime
 keep ing
 jewel ry
 ign ore
 free z
 fr o
 fix ing
 dra in
 destroy ed
 dem and
 delight ed
 cu b
 cro ssed
 count ry
 class room
 cir cles
 c omet
 button s
 bu zz
 bro om
 belong s
 belie ved
 be g
 L enny
 John ny
 E nd
v ice
ut or
ur ch
uc et
st al
sh ion
s qu
squ it
squit o
or ch
oph y
itten s
im ed
ie st
er ation
en se
ec ture
c ase
as on
Y ay
W ell
N ot
M ary
Gra ndma
!" .
 z ero
 v room
 up stairs
 univer se
 tr ophy
 the ater
 thank s
 t utor
 stri p
 straw berries
 str ugg
 step s
 some where
 sniff ed
 slid ing
 shout s
 she lter
 separ ate
 r ush
 pre vent
 pol ish
 po ison
 pl astic
 pir ate
 pet als
 p orch
 p ony
 p ages
 op eration
 obser ve
 mo squito
 ma ss
 l ecture
 l amp
 kne el
 inse ct
 inc l
 im age
 grow ing
 g ro
 freez er
 fing ers
 fam il
 fa ucet
 fa shion
 does n
 cry stal
 ch urch
 cake s
 butterf lies
 bump ed
 bu ried
 brother s
 bel ow
 bark ing
 bal an
 b et
 all ow
 ad vice
 W here
 Snow y
 Sm ith
 P aul
 N ana
 Joe y
 Fro ggy
 F rank
ve al
ster day
pl ay
m ble
l ive
iv i
is dom
ig loo
if orm
e sterday
d robe
ar ian
ap a
an ger
a ced
S ee
Re ady
C h
. .
. '
 zoo keeper
 y ucky
 worm s
 we b
 was hing
 war drobe
 veh icle
 ur ge
 un iform
 tw ir
 tre mble
 to ng
 surpr ises
 suggest ed
 st ro
 sp ell
 sor ted
 smell s
 s uff
 re veal
 play er
 pe ek
 pe bbles
 pa used
 p leased
 men u
 me owed
 l ily
 joke s
 introd uce
 hig hest
 gre edy
 go al
 gigg le
 foot ball
 ex t
 end ed
 em er
 eager ly
 drop s
 dis play
 d ust
 cup board
 cla w
 cho ice
 ch asing
 c ared
 book case
 boat s
 be ep
 ba king
 b ak
 acorn s
 T oto
 P ete
 P at
 L ook
 F l
 Ch loe
 B ig
  igloo
y th
udd les
uc ture
uc ked
ri age
or ted
m em
l v
l id
in arian
id es
eter inarian
ess ie
em ember
em e
ec ted
e al
c ome
ation s
ar oo
ang aroo
an ny
am ber
a pping
J enny
H a
 we st
 war ning
 war ned
 wander ed
 w igg
 v eterinarian
 ur ged
 tra ffic
 th umb
 stud ied
 str ucture
 str anger
 stick er
 sque e
 soft ly
 shr ugged
 show er
 shiver ing
 sh ield
 se ason
 sc ore
 sc oop
 sad ly
 ring ing
 re verse
 re aches
 puzz les
 put ting
 p ies
 op in
 mix er
 min ute
 me as
 lean ed
 l uck
 k angaroo
 j azz
 incre ase
 imag ined
 hop ing
 free ze
 colour ful
 coat s
 cher ry
 ch amber
 c ards
 burn ed
 buck le
 bright ly
 bre eze
 bre at
 app laud
 Sof ia
 S ophie
 S low
 P apa
 J o
 F o
 Brown ie
 A bby
  â
yth m
w e
sp it
spit al
pl ace
ol a
og n
n esday
med i
medi ately
m are
lid ay
l s
it ation
ipper y
in king
ic er
her o
ed nesday
e er
az or
as is
M ark
E lla
Bob by
 trust ed
 torn ado
 tong ue
 t ug
 supp ly
 super hero
 start s
 st umbled
 sque eze
 sl ippery
 sk ill
 sit s
 ser ved
 scr atch
 respect ful
 rec ogn
 rain ed
 rabbit s
 r ow
 r azor
 po ppy
 pen ny
 or anges
 o live
 o asis
 night mare
 neigh b
 mass age
 mark s
 ins isted
 in f
 ho spital
 ho liday
 h ook
 guess ed
 fre sh
 forgot ten
 flo ated
 fl our
 feel ings
 fall en
 ext ra
 excited ly
 encou rage
 deep er
 cut ting
 cup s
 climb s
 claw s
 c ape
 boot s
 bab ies
 att ached
 agre e
 W isdom
 V ivi
 U nder
 Sque aky
 S u
 R ock
 P inky
 N ot
 N ext
 M illy
 J ake
 D ave
 C uddles
  x
t ain
sc ope
red ient
redient s
op s
n ce
iz es
it es
irr ing
ir affe
ing redients
gen cy
ctor y
ax i
at ie
L eo
Be fore
B ella
 wis dom
 tight ly
 t axi
 st irring
 squee zed
 sister s
 should n
 sell ing
 seat s
 sc old
 s ix
 rece ive
 ra ised
 ra ise
 prin ted
 pri ze
 pretend ing
 prep are
 potato es
 ph ot
 perm it
 pa id
 our selves
 must ache
 move s
 min t
 m ummy
 lick s
 land s
 imag ination
 im mediately
 hurt ing
 hun g
 hill s
 heart s
 gro cer
 grand pa
 gi ven
 follow s
 fl ood
 fl ame
 far t
 famil ies
 fa ctory
 ex pect
 en er
 eas ily
 dress es
 dress ed
 del ay
 d ared
 count er
 coll ar
 ch irp
 ch ance
 cap tain
 c udd
 bl ood
 bean s
 base ball
 b other
 att ention
 amaz ement
 When ever
 W ould
 W ednesday
 Ro ver
 Ro llie
 M ittens
 M e
 L ee
 H appy
 G iraffe
 Fin n
  ingredients
  

z en
sp eci
speci ally
n oon
la imed
ind eer
in ce
ic a
i en
d o
ar nt
ar i
ag ull
Y uck
S h
 â 
 wr iting
 wor se
 win ning
 understand ing
 tr ade
 to night
 thre ad
 teach ing
 stre ng
 stop s
 st ing
 splas hing
 sol ved
 sock s
 so ak
 snee zed
 se agull
 scatter ed
 re indeer
 rad ish
 quiet ly
 prun e
 pre ss
 play time
 pl aced
 pan ic
 p ed
 opin ion
 meet ing
 mar riage
 le arnt
 la id
 l ung
 kn ot
 inf ant
 in st
 hop es
 gu y
 gaz ed
 fro zen
 fl ies
 fire place
 explor ed
 exp er
 exc laimed
 ent er
 emer gency
 e specially
 de ar
 d ried
 d aisy
 con f
 collect ion
 chair s
 cart oon
 call s
 bre aking
 blow ing
 be at
 bark s
 ap art
 after noon
 adm ired
 a dded
 T ippy
 T eddy
 L ola
 J oy
 J ames
 H ave
 E lly
 D ino
 D are
 Ch arlie
 C l
 B ow
urt her
ur pr
um es
u el
u be
ro scope
re en
p ted
m en
le phant
iz ing
it ies
ic ing
i ving
ht ray
h ood
h appy
g es
ex ture
el come
e ath
as er
an ie
ad ed
W ould
W ill
F red
Em ma
 z igzag
 wonder s
 water ed
 van ished
 track s
 to es
 t ucked
 t ube
 t exture
 suff er
 study ing
 steal ing
 st itch
 sk ipping
 sh one
 repl ace
 ran ch
 r ul
 pull s
 phot os
 pass port
 pan s
 off er
 my self
 monkey s
 min er
 mic roscope
 man age
 li ves
 lemon ade
 l imes
 kind ly
 gr ant
 fl apped
 exper ience
 exam ine
 embarra ss
 drink s
 disagre ed
 craw ling
 cost umes
 co pper
 br ings
 blue berries
 beaut y
 ba ked
 as htray
 acce pted
 St itch
 M ay
 M aggie
 Jess ica
 H o
 Go d
 G ood
 Fro g
 C o
 Bl ink
 Bird y
 Be fore
 B ally
we en
w alk
urpr ise
un ately
u ss
th ank
s ed
ra ised
que st
oun cy
ob y
la ire
io let
ic orn
ht er
et ch
d am
c uss
b ook
b oo
at ched
Every one
A nn
A ll
 we ather
 ve il
 un icorn
 un happy
 tomato es
 to re
 te asing
 sur f
 streng th
 ste am
 st air
 side walk
 se w
 s ince
 ru les
 rem oved
 ra cing
 pun ished
 pun ish
 pret t
 plan ted
 pat ch
 p raised
 note book
 no vel
 nam es
 miner al
 ma ster
 laug hter
 incl ude
 her s
 grocer y
 glove s
 for t
 follow ing
 f urther
 ener gy
 elephant s
 eat en
 don key
 dis cuss
 cur led
 cr ane
 comf y
 collect ing
 celebr ation
 bucket s
 bet ween
 bel t
 bear s
 app ro
 T oby
 Snow man
 Rock y
 R emember
 L ittle
 K e
 H op
 Gra nd
 E ach
 B ug
 B ouncy
 B inky
 B essie
  er
  Once
ugg led
ugg age
s hed
re ct
ra ged
ou ch
m end
ls a
loo king
is ing
ip e
in ked
id s
er cy
en ge
com mend
c ious
ber t
az ine
all enge
ab y
ab ella
W elcome
To day
The se
Thank s
S urprise
Mom o
B ird
Al ice
" ,
!" ,
 zoom ed
 yaw ned
 wor th
 wigg le
 whist led
 whisp er
 wat ches
 wait s
 unl ocked
 treasure s
 throw ing
 stick ing
 star ting
 sne aky
 sn uggled
 sn apped
 sil ence
 should er
 shin ed
 sett led
 scold ed
 s ir
 rec or
 re sp
 re quest
 re commend
 qu ite
 pig s
 peanut s
 pattern s
 op era
 o h
 me ow
 mat ches
 mar ried
 mag azine
 m ister
 light ning
 let ting
 l uggage
 keep er
 jog ged
 inv itation
 inst r
 in ch
 had n
 ha ll
 gr in
 fold ed
 fl at
 firework s
 feed ing
 f ed
 creature s
 ch allenge
 cand les
 bu bble
 brave ly
 bra in
 bl inked
 ben eath
 be nd
 bak ery
 bad ly
 arg ue
 appro ached
 apolog ized
 act iv
 Z igzag
 U n
 Spark y
 Sh aring
 S un
 M o
 K atie
 Ho pper
 H oot
 Grand pa
 Gra ce
 E lephant
 Ch ick
 A corn
up s
uc t
ss ible
re ck
ph one
omed ay
k y
k ins
igg les
i um
i ers
g o
fort unately
et y
cy cle
co nd
c ense
ay ak
av id
ap ed
ad ium
W ith
W atch
T rue
O k
M ay
E ventually
B uddy
 work er
 waff les
 wa ving
 w reck
 vis ited
 ve st
 under ground
 tw ink
 tra ve
 their s
 tele phone
 tast es
 st adium
 spr ink
 spend ing
 sp it
 sold iers
 sne ak
 sl ap
 sho pping
 see ing
 se cond
 saus ages
 saf ety
 s omeday
 s izes
 s ip
 rul er
 room s
 ro pes
 resc ued
 res ult
 rem ained
 relax ed
 qu ack
 pus hing
 plan es
 o at
 n apping
 motor cycle
 moment s
 m ama
 lip s
 li cense
 le ather
 l ined
 k ayak
 it em
 happen s
 growl ed
 girl s
 gather ing
 ent ered
 encou raged
 eag le
 down stairs
 d uring
 cont est
 cla pping
 celebr ated
 bright er
 breat he
 br ushed
 bit ing
 bit es
 balan ced
 as hes
 any where
 an n
 all ig
 agre ement
 Wh o
 S ee
 R ay
 P ercy
 Mar ia
 K ate
 Jack y
 Fo x
 C ra
 Bet sy
 Al ice
z i
ust y
um ber
ue st
s ing
ri an
re c
rec i
r s
r r
qu ake
oy s
ors es
l ue
j o
ish y
is hing
im ple
ig gy
e zi
e ve
e ave
ch oo
ang ers
an n
ann a
a cked
St ay
S p
M oral
Em ily
D og
B u
== =
 z ipped
 work ers
 wonder ing
 whist les
 w ob
 vill ag
 van ish
 tw in
 tub es
 trip s
 stri pes
 stretch ing
 str angers
 spray ed
 sp ike
 so ared
 sne aked
 sight s
 set ting
 scream ing
 s imple
 s igh
 road s
 rh ythm
 ran g
 prov ided
 pro ject
 present s
 pre cious
 pr ide
 po king
 plan ned
 pile s
 pencil s
 ped als
 part s
 p ipe
 oy sters
 organ izing
 ord ered
 on wards
 olive s
 now here
 new s
 neighb our
 mouth s
 meas ured
 m uddy
 m ice
 m erry
 loo p
 lo ses
 la ser
 l ines
 kneel ed
 kn elt
 kiss es
 kick ing
 ide as
 happ iest
 hand ful
 h orses
 grin ned
 glass es
 gift s
 g uest
 g ained
 forget s
 float ing
 fl ap
 f etch
 ex it
 earth quake
 dr inking
 dec ides
 cush ions
 cop y
 cand ies
 buzz ing
 brick s
 boun cy
 boun cing
 bloom ed
 app reci
 app ear
 allig ator
 Y esterday
 W iggles
 T ara
 St op
 Sp in
 S ky
 R ed
 P izza
 Me g
 M ushroom
 Jo sh
 J anie
 F or
 E lsa
 Cl ara
 C ow
 B oth
 B arry
us b
usb and
unch y
ul p
ud ience
ra ight
r is
r ing
r iger
riger ator
qu ip
quip ment
pl ash
or ies
or ed
lv et
itc hes
he e
h ind
h a
er ious
en a
ed s
be y
aw s
at ty
Y um
Wh iskers
T ime
R uby
R ob
R emy
Q u
John ny
H appy
E x
D ave
B lue
= ==
' .
 work s
 wood en
 weep ing
 wag ging
 ve lvet
 v ines
 tra pped
 tr aded
 thre at
 th rill
 stud ents
 str ings
 st raight
 st ain
 splas hes
 spark led
 sort s
 so c
 sl apped
 skill s
 sail ing
 ri p
 reveal ed
 ref rigerator
 record ing
 recor ded
 recogn ize
 re leased
 pull ing
 pu p
 prett ier
 pop s
 point s
 play s
 plan et
 perfect ly
 pear l
 pe as
 our s
 obser ved
 oat s
 o bey
 n one
 n icer
 mus cles
 mot ion
 mix ing
 miss ion
 melt ing
 magnet s
 log s
 li ed
 let s
 lay ing
 keep s
 k ites
 jog ging
 hit s
 he s
 hard ly
 h usband
 h on
 guy s
 got ten
 gold en
 gl itter
 fart her
 e quipment
 e ight
 e ff
 e ast
 dog gy
 distur bed
 differe nce
 demand ed
 decor ations
 cra shed
 cra sh
 cr unchy
 coll ected
 chew ed
 che f
 cat ches
 by e
 br id
 blanket s
 bl ouse
 beg in
 bed s
 b oo
 b ones
 arg ued
 answ ers
 ag o
 act ually
 a udience
 T ina
 T ato
 Su zy
 St ay
 Spin ny
 Prin ce
 N avy
 M ouse
 L ou
 L izzy
 L ater
 Jess ie
 H enny
 Every thing
 Co co
 C ar
 Bird ie
â .
z ie
y lv
ylv ia
ve st
vest ig
vestig ate
v a
ubb les
u ke
t uce
sc aped
r ise
r ight
ound s
os ed
or ge
mb ling
ll en
l iver
iz ard
it ched
ip s
in t
in ing
ight y
ide y
i ved
i b
i am
he llo
f ather
ed d
edd ing
com pl
ch ie
c us
ater pillar
ant ly
ang a
an es
a ved
a les
U n
S andy
P eter
J azz
F o
B oo
A choo
 zoom ing
 whist ling
 welc omed
 w oof
 w izard
 w edding
 voice s
 un ited
 twig s
 tre mbling
 thrill ed
 te ased
 t ap
 swim s
 supp osed
 sun rise
 succeed ed
 strugg ling
 spark le
 soc cer
 so il
 snow ball
 sl ice
 sit u
 shovel s
 should ers
 shadow s
 scream s
 scr atched
 scatter ing
 saf ari
 s ense
 rot ting
 roar ing
 rest ing
 rece ived
 rain ing
 qu acked
 pur red
 prin ter
 pir ates
 pin ched
 pet ted
 pear s
 pay ing
 past el
 paint s
 p alm
 out do
 ornament s
 nail s
 muff ins
 miss es
 mention ed
 mel ted
 mat ched
 mar ble
 man e
 let tuce
 land scape
 l umber
 knock s
 jewel s
 inv iting
 incre ased
 in vestigate
 import ance
 h um
 h i
 grand father
 g ust
 fold ing
 fire men
 field s
 er aser
 eff ort
 eat s
 eas ier
 e scaped
 draw s
 drag ged
 disco very
 disagre e
 di rect
 de al
 d ied
 cre ation
 cre ated
 crab s
 corn ers
 comf orted
 close ly
 chirp ed
 cheek s
 c ough
 brid ges
 br us
 bloom ing
 beh aving
 beh aved
 be side
 be ard
 balan cing
 back pack
 b ur
 b erry
 b ang
 aw e
 as ide
 al ien
 adm ir
 activ ities
 ac compl
 Z ero
 W atch
 V iolet
 Tweet y
 The se
 Sof ty
 Sh iny
 S w
 P ippy
 O ur
 O liver
 N ice
 Mar ie
 M oppy
 M ina
 M ighty
 M andy
 L ove
 L illy
 Jack ie
 How ever
 H atty
 G et
 D avid
 D an
 Br ush
 Be ing
 B ubbles
  X
w as
was her
v room
unt ie
un e
um ents
re at
r anny
op er
om ing
oc co
n ap
m other
m m
low ers
le ed
iss ue
ir m
id o
ic ular
i ar
er n
en ry
ell e
e orge
e ff
c ie
av i
arm ony
are ly
ant a
an ted
am b
ac ob
Sam my
S ophie
R o
R ex
O ur
Joe y
Ex c
Ben ny
? '
.. ."
! '
 yaw n
 y esterday
 win s
 week s
 w ink
 villag ers
 val ued
 un s
 twir led
 truck s
 tra ctor
 t una
 t issue
 sweet ies
 swe at
 stuff ed
 stro ll
 ste ep
 stamp s
 st ung
 st ern
 sprink les
 spoon s
 spike s
 so re
 so fter
 sing le
 sigh s
 shout ing
 she d
 sh ot
 seem s
 se ven
 scr ub
 scoot ers
 scoop ed
 sc ur
 sa v
 s ings
 ri ce
 resp on
 recogn ized
 read s
 reach ing
 ran ger
 r usty
 print s
 prep ared
 pr oper
 pour ing
 po ssible
 part ies
 part icular
 p le
 outdo ors
 off icer
 object s
 neighbor hood
 n ine
 n avy
 mon sters
 mem ories
 meas uring
 lo ving
 learn s
 lean ing
 knight s
 kick s
 is n
 his sed
 hero es
 help ers
 he el
 growl ing
 gre y
 grand mother
 gr anted
 gigg ling
 forg iving
 fl av
 fa ced
 ex pected
 dish washer
 dig ging
 dark er
 d en
 cut s
 cub es
 creat ing
 cre ek
 cont ain
 complet ely
 col ours
 clap s
 chew ing
 ch oo
 buzz ed
 block ing
 bl own
 beh avi
 beg ged
 batter ies
 back ward
 b leed
 b arely
 automobile s
 ann oy
 act ions
 accompl ish
 ac ted
 W oof
 Sun shine
 Su zie
 Sp irit
 Somet hing
 Slow ly
 S unny
 S plash
 S anta
 Prin t
 L uke
 K ids
 K anga
 Jo jo
 J umpy
 It s
 H oppy
 G reen
 G ray
 G ranny
 Frank ie
 Fl ick
 F riend
 Every day
 D ezi
 D anny
 C laire
 C aterpillar
 C arl
 B y
 B op
 B aby
 Ann e
 Al ways
 A rm
 A nt
 A dam
  
 
z ing
ut ure
ut ter
urn it
urnit ure
ud ed
st ri
stri ch
ro l
r up
r ops
pp ers
os ity
ore nce
or man
orman ce
ook ie
omet imes
og o
o llen
o id
n o
n joy
m ies
le x
le ct
l er
ist en
ind rops
ind a
im y
if i
ien n
ienn a
h ythm
gu ing
gu ard
f ound
ent y
el ix
e ven
e f
aw n
as es
ad os
ad ly
ac y
ac ation
ab el
a ct
W hee
V room
T weet
T ake
S ometimes
Qu ick
P inky
O ut
O ops
M aggie
L izzy
J erry
H old
H ave
Good bye
G reat
Fo llow
Exc use
D uring
D ucky
Ch arlie
Bu zz
B ear
 yell ing
 worry ing
 wis hing
 win ner
 where ver
 wear s
 warm th
 warm er
 wa ist
 van illa
 v et
 v ent
 v acation
 uns ure
 twist s
 tri cked
 trave ll
 touch ing
 th ud
 teac hes
 tal ents
 tal ent
 table s
 t y
 sweet s
 sweat y
 sw ollen
 sur round
 stro ked
 sto le
 start led
 some body
 so aked
 slow ed
 sl ug
 sl ither
 sl imy
 sh own
 screw s
 scar ing
 sc ales
 sail ors
 s y
 rocket s
 rock ing
 ri pped
 rest ored
 ref use
 real ize
 re ef
 ra indrops
 r umble
 r isk
 r ings
 protect ing
 pract icing
 pot s
 post s
 pl enty
 perform er
 perf ormance
 per ched
 pe el
 patient ly
 pat ience
 p ad
 own ed
 open ing
 o strich
 new found
 neighbour hood
 mus cle
 mov ies
 mountain s
 mask s
 mar ked
 ma iled
 m ood
 life guard
 lemon s
 la p
 l amb
 kn own
 join s
 jo king
 item s
 itch y
 impr oved
 hur ried
 head ed
 ha w
 h itting
 guest s
 ghost s
 garden er
 flag s
 fit s
 fart hest
 f uture
 f urniture
 f irm
 e vent
 dri ves
 dragon s
 direct ions
 dest ination
 des ert
 des er
 deliver ed
 decor ated
 cudd led
 crown s
 cre pt
 contin ue
 cont rol
 complain ing
 compl ained
 com bed
 clown s
 cl ick
 chirp ing
 ch op
 celebr ating
 camp ing
 c or
 c ash
 build ings
 bu d
 brus hes
 bra nd
 blow s
 bleed ing
 begin ning
 bed time
 be amed
 bak er
 ba cked
 avoc ados
 av oid
 ar guing
 appreci ate
 applaud ed
 all ey
 al right
 air pl
 admir ing
 W ant
 Un fortunately
 Sw itch
 Sp idey
 Rob ot
 R abbit
 Prin ty
 P ip
 P aws
 P am
 O xygen
 O x
 O ut
 Miss ile
 L eave
 Ke ep
 J olly
 J eff
 Is abella
 I zzy
 Her b
 H ippy
 H enry
 H arry
 Gra cie
 G ogo
 G eorge
 Fo llow
 Fl orence
 F ifi
 F ido
 F elix
 E njoy
 Do do
 Cra bby
 Ch ris
 C able
 B rian
 B ones
 B irthday
 Al bert
 A n
  Yes
  1
x u
xu ry
w h
und ay
uck s
u xury
th ur
t ory
se qu
sequ ence
sequence s
se ek
sc reen
sc in
scin ated
ri ver
ri p
ret t
re eze
re e
ra p
r thur
qu id
pe edy
p lease
ou la
ot ton
or ter
old y
o ke
o dy
led ge
lect ion
l ict
ke nd
it s
is hes
ile s
igg ie
ig ail
ie ce
id ers
ich a
icha el
ice s
i ven
h h
es ome
ent ist
ent er
elly fish
eal ing
e kend
dd ler
dd ie
d river
c ter
bb led
b ing
b igail
b ie
as hed
ara way
ara cter
ar ter
ar rin
ak er
aff es
act ly
ache l
Z oomy
U h
Re ally
P rin
P ete
Me ow
M illy
L ina
L ena
J ake
Is abella
Fred dy
Dog gy
C laire
C l
B ig
B et
B ad
Al bert
A dam
.. .
.' "
 wob b
 wire s
 wip es
 what ever
 we pt
 we ighed
 we ekend
 water ing
 warn ings
 wake s
 w ow
 w ounds
 vide os
 v ict
 us ual
 twir ling
 twir l
 twink ling
 turn ing
 trick y
 towel s
 to ss
 to ddler
 tick le
 tall est
 talk s
 tail s
 sy rup
 swe ep
 sw oop
 sw itched
 supp orted
 sun screen
 strugg led
 strugg le
 sto pping
 stay ing
 st ew
 spread ing
 sp ins
 sp ices
 smile y
 small est
 sm arter
 slip s
 sing er
 sign s
 shr ug
 she lves
 sh orter
 season s
 scrub bed
 screw driver
 sav anna
 sad ness
 s way
 root s
 ro ses
 reward ed
 request ed
 repe ated
 ref lection
 re lease
 r ather
 quarrel ing
 pump kins
 prot ected
 prom ises
 pretend s
 pract ised
 police man
 poin ty
 pill s
 pee king
 pe ppers
 par ked
 p ec
 owl s
 no ses
 mess es
 match ing
 m iles
 load ed
 li quid
 lead ing
 l uxury
 know ledge
 kne es
 jacket s
 instr uments
 ins ist
 incl uded
 hum an
 horn s
 his tory
 hid es
 haw k
 hall way
 guess es
 gre et
 grass y
 grace fully
 good night
 go als
 gir affes
 gaz e
 frown ing
 fro ze
 forg iven
 fore head
 food s
 fo cus
 fl utter
 fl own
 fill ing
 fair ies
 fa scinated
 f uel
 f araway
 ex actly
 di pped
 decor ating
 dad s
 d ot
 d ie
 d entist
 curtain s
 crack er
 cr ow
 count s
 conf lict
 conf ident
 con sequences
 con n
 con es
 con cer
 comput ers
 comple ted
 clos es
 chef s
 chan ging
 ch ases
 ch aracter
 ch anges
 catch ing
 cash ier
 bring ing
 br u
 behavi our
 b itten
 aw esome
 aw ake
 airpl anes
 agre es
 act s
 Z iggy
 Z ane
 Y et
 Y awn
 With out
 W ater
 W ally
 Th ose
 T una
 St eve
 St acy
 Some one
 S unday
 S peedy
 S orry
 S ienna
 Rob by
 R occo
 R hythm
 Pe pper
 Pe anut
 P u
 P enny
 O at
 N ate
 M on
 L inda
 L ina
 L aser
 Ke ith
 J ellyfish
 J acob
 H ana
 G ina
 Friend s
 F ishy
 D r
 D ina
 Cow y
 C ookie
 Bug gy
 Be hind
 B ye
 B oo
 B olly
 B o
 B iggie
 A va
 A lex
  ouch
  Quick
  5
   
ut ch
umb ling
ul ie
ul f
ugg les
uff les
uct antly
ucks ack
uck led
u ly
u ess
th s
th ough
sh op
s nap
s m
rr r
r at
rat ul
r ance
pr ing
p ose
p ite
p it
p er
ost ing
os en
or ing
or a
ong ratul
om as
oh ny
ob ody
n k
n ers
m ates
ly a
le af
l ong
l ier
izz ie
it ion
is ions
ir i
ine y
ic les
ia o
h ouse
g iving
f orm
f ia
es pite
ent ly
el ion
d ies
c l
by es
b oom
ay s
ately n
at re
at ches
ast y
anna h
and elion
am med
al med
al erious
al ed
ad ing
a h
Z ara
Y ummy
V iolet
V ery
Un cle
T eddy
St eve
So fia
S illy
R emember
P aul
P at
M mm
M ar
L una
J ames
G uess
G igi
Fin ny
F rank
E w
D eal
B aby
And y
After wards
A T
 zip s
 you th
 yell s
 work shop
 wind y
 wigg led
 were n
 weigh s
 was ted
 vict ory
 vi br
 vent ured
 ty pe
 tun e
 travell ing
 trave led
 tr uly
 to ad
 tight er
 tick led
 the atre
 tast ing
 t ugged
 t ipped
 t im
 swim mer
 sw itches
 sw ap
 suff ered
 strong est
 stern ly
 ste ady
 stay s
 stand s
 st ool
 st itches
 st are
 sque aked
 spray ing
 sport s
 spark ling
 sp iders
 sp at
 snow men
 sn atched
 sm ashed
 sl ipping
 sl ammed
 situ ation
 shoot ing
 shirt s
 scur ried
 sand pit
 sa nk
 s ides
 ru in
 row ing
 river s
 risk s
 rest ed
 respon se
 resp ond
 res pected
 repeat s
 remind ing
 remind er
 ref re
 real izes
 rainbow s
 rad ishes
 ra king
 r ucksack
 r ising
 pur pose
 pup il
 proper ly
 pro cess
 pray ers
 post c
 pol ishing
 play ers
 planet s
 pl ates
 pass ing
 pack ages
 p ins
 out f
 not icing
 no on
 neighb ors
 neat ly
 ne ither
 n asty
 mom mies
 mom ma
 mitten s
 mind s
 mind ing
 mind ed
 mean ing
 matter s
 march ing
 mail ing
 mach ines
 m aker
 loud est
 loo se
 liz ards
 knot s
 knock ing
 key s
 home work
 hes itation
 hes it
 heal ed
 hands ome
 good byes
 glow ed
 g rip
 fr osting
 follow ers
 fis hing
 fill s
 figure s
 fear s
 fa ct
 f u
 exam ined
 every body
 er ase
 ent rance
 el bow
 ear lier
 dri fted
 dolph ins
 di ving
 deliver ing
 dec isions
 dec ision
 de ed
 d aring
 d ar
 d andelion
 curious ly
 curi osity
 cudd ly
 cra ft
 cover s
 com m
 cob ra
 clo ver
 cl am
 choo sing
 ch uckled
 ch osen
 c ongratul
 c almed
 bury ing
 burn ing
 bump s
 bu bb
 bru ises
 bowl s
 bow ed
 bo om
 bo dies
 belie ving
 bec oming
 be lly
 bath s
 base ment
 band ages
 ban ged
 back wards
 are a
 annoy ed
 am used
 after wards
 adventure rs
 adventure r
 accomplish ment
 ab il
 a chie
 Z ara
 X iao
 W or
 U p
 Thank s
 T ry
 T ed
 St ring
 St ella
 St ealing
 Sque eze
 Sp ud
 Sn uggles
 S ylvia
 S ummer
 S eth
 S erious
 S adly
 R uffles
 R iri
 R ia
 Pu ppy
 Prin cess
 Pipp a
 P ur
 P l
 P iney
 Not hing
 May a
 M abel
 L iz
 L iam
 L arry
 J une
 J illy
 H ung
 H old
 H armony
 Good bye
 G ulp
 G oldy
 Fl ora
 F irst
 Dog s
 Cra b
 C ari
 Br ad
 Bob bie
 B ert
 B ee
â 
y ond
wh at
v in
ut ty
ust ed
us ic
un ning
umb s
um m
umm aged
um ent
ulf ill
uit s
ug ar
uct ions
uck ily
ub u
u es
u a
to ed
t her
t he
st ep
ss ess
sh ip
re verse
re pe
repe at
r ust
r on
r kins
r ink
pa cked
p are
ord an
or se
or ay
oo sh
ong head
om p
ob ey
o ssible
o le
mb ers
m ered
m anda
ld ers
l unt
joy ed
j am
jam as
iv ity
it ely
iss ion
is ty
ious ly
ind y
ik y
ig ning
ie ve
id ened
id ence
ick ing
ib bit
ha usted
ffic er
era ld
ep t
el on
el ieve
e in
e ed
e an
dd ing
cut ter
ct ar
chie vous
ch ing
ch ieved
c row
c c
cc as
br ush
bb ing
b ut
b les
b bed
ass port
app laud
ant ha
and as
an s
am ie
am boo
al oo
aid s
ac ing
Z oom
Un fortunately
Tweet y
T oto
T iny
Sp ike
Sh aring
S ylvia
S un
S ome
R un
R ibbit
P oula
P oppy
P andy
P am
O r
O llie
Mr s
Me g
M ittens
M ine
M andy
L eave
K iki
K atie
Jack y
J ump
J ohny
J essie
J anie
H oney
Gra ce
F ro
F or
F irst
E llie
E at
D olly
D ear
C at
Bu zzy
Bet ty
Be hind
B rian
B r
B oys
B ill
B arry
A untie
!â .
 you nger
 wra pping
 wr ist
 wood cutter
 wobb ly
 wob bled
 wis er
 wis ely
 wh oosh
 web s
 we eds
 w idened
 vo lunt
 visit ing
 vibr ant
 us ually
 un packed
 un f
 u nd
 tw isty
 trou bles
 tree house
 travel s
 town s
 touc hes
 tool box
 tire s
 tim er
 thie ves
 test ed
 tear ing
 team work
 tea pot
 task s
 talent ed
 table t
 ta pped
 swoop ed
 sw ept
 surround ings
 surf board
 supp lies
 sty les
 street s
 str uck
 stom p
 star ing
 stain s
 stack ing
 st umble
 st ings
 st em
 sque ak
 squ ishy
 spit s
 spill s
 spark les
 sp out
 sp iky
 soar ing
 so aking
 sniff s
 sn ug
 sn orted
 situ ations
 sick ness
 shiver ed
 shin es
 sh ock
 sh ady
 send ing
 secret s
 sad der
 sa le
 rob in
 repl aced
 remember ing
 rel uctantly
 r ummaged
 r ider
 r id
 queen s
 quack ing
 pur rs
 pudd ing
 prett iest
 press es
 pr ove
 pow ers
 po ssess
 ple aded
 plan s
 pl um
 pl ain
 pigeon s
 perm ission
 perform ing
 ped al
 pec ked
 pear ls
 pe ered
 path s
 pat ted
 paint ings
 pa jamas
 p iled
 p ause
 p andas
 own ers
 over joyed
 outf its
 o ccas
 no dding
 nervous ly
 ne ctar
 n iece
 mon ths
 mis chievous
 mess ed
 me mbers
 mark er
 m oo
 lung s
 lollipop s
 listen s
 lesson s
 lend ing
 le ast
 le ap
 l ump
 jo ked
 int r
 instr uctions
 ind eed
 imp ossible
 imag ining
 hug ging
 hot ter
 heal th
 head ing
 gu ide
 growl s
 gro an
 grand pare
 gear s
 gaz ing
 gasp s
 g ross
 g oo
 fu zzy
 fre ed
 fox es
 for m
 for ce
 fog gy
 flow ing
 flav ors
 flav or
 fl ip
 fl apping
 fl ames
 firm ly
 fig ured
 famil iar
 f ulfill
 exerc ises
 ex hausted
 every day
 enjoy able
 em erald
 ed ges
 e lders
 e ase
 dust y
 dri p
 do d
 dis obey
 different ly
 deser ve
 demand ing
 de f
 dark ness
 d umb
 d itch
 cudd le
 creat ivity
 craft s
 crack ers
 cra cked
 cr utch
 cr umbs
 cor rect
 concer ned
 color ing
 cloud y
 clear ing
 class mates
 cl ip
 cho pped
 cheer ing
 character s
 cartoon s
 c enter
 c ause
 bur st
 bulb s
 breat hing
 bra very
 bott les
 bo oth
 bl ast
 bird ie
 bel oved
 be yond
 bat hing
 basket s
 band s
 bad ge
 b ully
 b amboo
 ag es
 ag e
 activ ity
 act ing
 achie ve
 a chieved
 Wh ich
 Un cle
 U se
 Th omas
 T urtle
 T oys
 T erry
 Spark le
 She ll
 Sh ow
 Sam uel
 S ugar
 S pring
 S ay
 Rob ert
 R udy
 R ich
 Pur rkins
 Pe a
 P ut
 P iggy
 P assport
 O lly
 O kay
 O fficer
 No elle
 N obody
 N ick
 Mon ster
 Mo le
 M usic
 M oon
 M ichael
 L ike
 L ena
 L and
 K irsty
 K elly
 K atelyn
 Is n
 Help ing
 H annah
 G ary
 E d
 D eal
 Chick y
 C otton
 C ally
 Br other
 B ubu
 B ecause
 B and
 B aloo
 A untie
 A rthur
 A bigail
  Q
  


year s
w oof
ver sed
ver ed
ver al
v il
ut ion
un ged
ump ed
ue en
u ri
t e
st ed
sp ired
sh all
se ed
s ible
s hing
rob es
ri er
ret ty
ress er
rap ed
r ucky
r ily
r ayon
rayon s
qu irrel
pp le
pp ies
ph an
phan age
p en
oun ced
oop er
ook s
ong e
ond e
omp y
om er
ment s
m oo
l ings
iver sity
iron ment
ird resser
ipp in
ink le
ini er
in ct
imp ly
ight s
igg led
ig ued
if ty
ie f
ic s
ic ip
ib lings
i ren
her ry
h ole
h og
h ive
h i
gu ess
get ic
g n
g ers
fe ated
ex it
et s
et ail
etail s
es mer
er ing
e am
d aughter
ck less
c used
c re
c ake
b ug
b s
b ric
atter ed
ater i
at ted
at t
asp ed
arn ey
arn ed
are st
ar ty
ar th
ar s
ar f
ans form
an et
amed ics
am bled
am age
ag le
ad es
ab ly
a ven
Wh ich
W iggly
W ant
Th ose
T ina
T ie
T ed
Sam uel
S usie
S nap
S low
S even
Rob ert
Ro ar
R ose
R ock
R achel
Qu ack
Prin t
P ut
P ush
P olly
P ippin
P ip
P e
O xygen
O at
Not hing
No elle
N ick
N ear
M iss
M int
M ila
L ulu
L uckily
L ike
K irsty
K im
K e
K ate
J o
J ess
J en
How ever
He aring
H o
H armony
H AT
Fro ggy
F our
F ine
E ven
E ddie
Dave y
D rink
D ezi
D avid
D arrin
D anny
Cl ara
Ch ris
Ch loe
Ch irpy
C indy
C atch
Bird y
B y
B ug
B ring
B rett
B ow
B olly
B inky
B ally
Ann ie
A lya
A hh
A N
, '
 zoom s
 yaw ning
 y um
 y elp
 wr ites
 wr iggled
 wor ries
 wo ken
 win ked
 will ing
 who se
 whisp ers
 wh ines
 we ed
 was ting
 was te
 wa ded
 w ound
 w ider
 w icked
 visit or
 villag er
 ur ging
 unt w
 unt angle
 un w
 twink led
 twink le
 tw ice
 tunnel s
 trust ing
 trumpet s
 travel ing
 tr ansform
 tr ading
 tow ard
 toss ing
 top s
 toilet s
 to ssed
 tip toed
 th ird
 tem per
 teaspoon s
 tank s
 t umbling
 t ang
 sway ed
 surround ed
 superhero es
 sunf lowers
 sun light
 stroll er
 stroll ed
 stro ke
 stomach s
 ste pping
 star fish
 stamp ed
 st unning
 st all
 sque aled
 squ ished
 spring ing
 spill ing
 spe aking
 space s
 sp onge
 sour ce
 sol ution
 so bbed
 snug gly
 snake s
 sn uck
 smell ing
 sm ash
 slither ed
 sl ower
 sink s
 sil ent
 shr ank
 shop s
 sh inier
 sh all
 sew ing
 sew ed
 separ ated
 sees aw
 see king
 se veral
 scur ry
 scr atches
 scr ambled
 scare crow
 scar ves
 sc raped
 sat is
 sal ty
 sail s
 saf er
 s iren
 s inking
 s imply
 s ill
 s iblings
 s ens
 ru ining
 rob ber
 roar s
 ro amed
 ribbon s
 ri b
 return ing
 respond ed
 respon sible
 rep ly
 remind s
 rel ief
 regret ted
 refre shed
 recor der
 recommend ed
 real izing
 real ity
 re versed
 re eds
 re ckless
 re ass
 re app
 rain y
 rain s
 rail s
 race s
 ra ked
 r ays
 pur r
 pu ppies
 prun ing
 prot ein
 prob ably
 present ed
 postc ards
 possess ion
 pops icles
 pol itely
 pol ished
 poke s
 pocket s
 po les
 ple asure
 pl ucked
 pinch ing
 pillow s
 picnic s
 pet al
 persist ence
 pe aches
 pat ches
 particular ly
 par ted
 par amedics
 pan icked
 pair s
 paint brush
 pad d
 pack et
 p ounds
 otter s
 or phanage
 opin ions
 offer ing
 occas ions
 obser ving
 newsp apers
 near ly
 ne arest
 n i
 must ered
 moon light
 model s
 min ty
 meow s
 may or
 mass ages
 m unch
 m esmer
 m ateri
 m ain
 lunch time
 low ered
 light er
 lift ing
 lick ing
 li es
 lead er
 land ing
 lady bug
 la unch
 l ower
 l ent
 key hole
 k itty
 journey s
 job s
 it ches
 inv ites
 intr igued
 intere sted
 in spired
 hunt ers
 how ever
 hope ful
 honest y
 hon or
 hon ked
 hon k
 ho st
 his sing
 hid er
 hesit ated
 helmet s
 helicopter s
 hedge hog
 hear ing
 he aven
 ham ster
 ham mered
 ha irdresser
 h ood
 h int
 guil t
 gu ided
 group s
 grocer ies
 groan ed
 grandpare nt
 grab bing
 go bbled
 gl ued
 gl im
 gl ared
 giant s
 g ulp
 friendship s
 fl ips
 fin s
 fin ishing
 fe ver
 fa ult
 fa bric
 f ired
 f ifty
 explore r
 experience s
 env ironment
 enthusia sm
 ent ire
 engine er
 eng ines
 ener getic
 end s
 encourage ment
 emer ged
 emb ra
 effort s
 e vil
 duck ling
 dry ing
 drum s
 dro pping
 driver s
 dri pping
 dri ft
 dri es
 dress er
 dod ged
 do omed
 display ed
 discover ing
 dinosaur s
 di ved
 determ ination
 destroy ing
 design ed
 des igning
 des c
 de feated
 dar ling
 dance s
 dan gers
 d umped
 d ips
 d etails
 d amage
 d a
 cur ly
 cross ing
 cop s
 conn ected
 conn ect
 conf idence
 con vin
 competit ion
 compet e
 comp any
 comfort ing
 colour ed
 coll ap
 cold ness
 clean er
 cl asped
 cir cus
 choice s
 chew y
 check out
 che at
 che aper
 ch ill
 ch arge
 cell s
 caulif lowers
 caterpillar s
 c ooper
 bush y
 bur row
 bubb ling
 bright est
 breat hed
 bracelet s
 bra ver
 bra id
 bounce s
 bother ing
 bother ed
 bo oming
 bo iling
 bo il
 bo bbing
 bl onde
 bl ocked
 bl ink
 bird seed
 bell ies
 bee hive
 beaut if
 be ast
 bath robes
 back s
 back ground
 b unch
 b umpy
 b orn
 aw ful
 arri ve
 ar f
 applaud ing
 apolog y
 apolog ize
 apolog ised
 ant icip
 annoy ing
 ann ounced
 ang rily
 ac he
 abil ities
 a st
 a imed
 a im
 a ff
 Wor king
 Will iam
 W o
 W hee
 W ell
 W ar
 To dd
 Thanks giving
 T angle
 T ake
 St eam
 S quirrel
 S ister
 R achel
 Q ueen
 Pl anet
 P oke
 P atch
 P arty
 Or ange
 On ly
 O uch
 O ld
 N utty
 N O
 Mar shall
 M ila
 M ike
 M alerious
 Lila h
 L onghead
 L izzie
 L isten
 L ion
 J ulie
 J amie
 In st
 H orse
 H olly
 F un
 E x
 E ddie
 E arth
 E agle
 D id
 D espite
 D arrin
 Co al
 Cl im
 C ompy
 C le
 C herry
 B rett
 B ark
 As h
 Ann ie
 Al though
 Al ong
 A pple
 ' '
  icing
  2
zz led
z ip
z ily
y sters
y ou
wh o
we ed
w inkle
w ell
ver s
v ided
v ast
vast ated
utomobile s
ut iously
ut ely
ust omer
ush y
us p
usp ic
us ing
us an
us ages
uri ous
ur ry
ur render
und red
un iversity
un ited
ump led
um mies
um ed
ul iar
uff ed
uct ion
uc ed
ubb ing
to es
ter y
t s
t ment
t le
t hen
t ally
t age
step s
st rated
sp icy
so l
sol utely
sh ua
sh r
shr inky
sh oot
sh aped
sh adow
sc re
scre w
s ider
s ers
s end
s aw
row ave
ron aut
rom ise
ro ken
ro codile
ro ccoli
ro at
ri or
ret urn
ret ching
re nt
re et
ra se
ra bs
r uits
r rr
r ings
qu ered
pr om
prom ise
pr int
pp os
ppos ite
par able
p ut
p ow
p o
po ison
p iece
p here
p an
own ie
out ines
out ed
ount ered
oug hed
ou ches
ot tage
ot ion
ot hing
os ure
os phere
ort unately
ore ver
or ds
or ant
oo ves
on strated
on n
onn a
ol ine
oe ver
o ving
o scope
o pped
o co
o ah
nt il
n ew
new ed
n eath
n c
m osphere
m elon
m eal
m ar
mar riage
ll in
le e
l osure
l ine
l ide
l ay
l ap
keep ing
k s
k le
jo iced
j ured
j est
iz on
ive s
ive ly
itt ered
itt ed
it ude
isten ing
ist s
ist ling
is ies
ir ce
ir ac
ipp ers
ipp ee
ine ma
inct ively
in ner
in ching
imal s
im its
ild ren
il iar
ick y
ic iest
ic ated
ic ate
i very
hing s
he w
he f
he ap
h ap
hap s
gn orant
gg ies
g th
g ic
fere e
f reeze
f ire
eth oscope
et ops
et ite
erc ise
er ve
er m
er gic
er f
end ing
end ant
en gth
en ery
em ies
em bers
el ax
ear s
ead ing
e ers
e aky
e ah
e ady
d ream
d ink
d ate
cream s
cre ase
col ored
co vered
cl oud
ck ly
cident s
ch o
ch ard
ceed ed
ce pt
cake s
c uments
c led
c ers
c ent
c cidents
c an
c al
br is
boo s
bo ards
be ep
bb ers
b roken
b oy
b ird
b ell
b ank
b ang
b age
ay ing
aw ked
aul i
ate st
at form
arn ess
arm er
arl ings
are fully
ar sh
ar ity
ar get
ar ger
app le
ant astic
an ing
amp oline
am iliar
all ow
ad ually
ad s
ach ine
a usages
a a
Z ip
Y ippee
Y ield
Y eah
Would n
Wh istling
W ork
W oah
W isdom
W ake
V ivi
U nder
Th ree
Th ough
T rust
T oys
T erry
T ara
T H
Sp irit
Sp in
Sp idey
Slow ly
Sh ut
Sh h
Sam antha
S ummer
S u
S que
S plash
S n
S leep
S it
S eth
S ean
S eal
S adly
Rock y
Ro ver
Ro llie
R ug
R uff
R occo
R abbit
R E
Prin cess
Pe pper
P op
P lay
P enny
Out side
On ly
O pen
O X
N ate
N G
May a
Mar ie
Mar ia
M ichael
M alerious
M achine
M abel
Look s
L ove
L ola
L izzie
L iz
L isten
L illy
L arry
L B
LB OX
Ke ep
K ids
K elly
Jo shua
J une
J ulie
J oy
J ordan
J olly
J acob
In stead
I gnorant
I NG
I LBOX
Ho oray
Hi ppy
Her b
H air
Go al
G ot
G et
G ather
Fo x
Fin n
F reeze
F ix
E lsa
E lly
E lephant
E d
E ach
D uck
D own
D ino
D espite
D ays
C s
C rabs
C ount
C oco
C heap
C ari
C ar
Br ownie
Br ad
Bet sy
Be ep
B rrr
B oy
B oth
B op
B less
B elieve
B ack
B aa
B Cs
Al ways
Al right
AN T
A rthur
A nt
A manda
A id
A h
A bigail
A bby
A ILBOX
?â .
? !"
.' '
' ."
" !
 â 
 zebra s
 your selves
 yield ing
 yield ed
 yelp ed
 wrap s
 wra pper
 wor st
 wobb ling
 with in
 wise st
 wind s
 who ever
 wh iskers
 wh ipped
 wh ine
 wh ales
 weekend s
 weapon s
 weak er
 water melon
 was hes
 war rior
 wa x
 wa nna
 wa king
 wa dd
 volunt eers
 volunt eer
 visit ors
 vill ian
 vi al
 vent ure
 veh icles
 ve ggies
 us es
 unw rap
 untw ist
 unt ie
 unlock s
 unf amiliar
 understand s
 under neath
 und o
 un zip
 un screw
 un less
 un able
 ty pes
 tw itched
 tw eet
 tug ging
 treat ed
 tre etops
 travell ed
 travel er
 transform ed
 tr ampoline
 tong ues
 to tally
 tired ness
 tip s
 tid ied
 ticket s
 thought s
 thin ner
 th roat
 test s
 tent s
 temper ature
 te sting
 tang led
 t ummies
 t umbled
 t uck
 t ippy
 t ies
 t arget
 swims uits
 sweet ly
 sweet est
 sweep ing
 sway ing
 sw at
 surpr ising
 surf ace
 suit s
 suffer ing
 success es
 su pper
 stro king
 stret ches
 streng then
 str um
 store keeper
 stor my
 stor ed
 stomp ed
 sting ing
 st iff
 st ethoscope
 squee zing
 square s
 squ awked
 sprink led
 sprink le
 spr ings
 spr ang
 spoon ful
 splas her
 spin ach
 spell ing
 speed s
 speed ing
 spark s
 space ship
 sp ades
 sol ving
 soft ness
 soft est
 so othing
 snowball s
 sniff led
 sniff ing
 snee zing
 sn oring
 sn atches
 sn ar
 sn apping
 smo other
 smart est
 slice s
 sleep s
 sle ek
 sl ed
 skirt s
 skill ed
 six ty
 since re
 side ways
 shr unk
 shr inking
 short s
 shoot s
 shoot er
 sharp ed
 shap ed
 sh h
 sh ame
 set s
 ser ving
 sens ation
 sel f
 seek er
 sec ure
 seagull s
 sea weed
 scurry ing
 scratch ing
 scr ubbing
 scoop ing
 scold s
 scare s
 sc ri
 sc ra
 sc ience
 sc enery
 sav or
 satis f
 sal on
 safe keeping
 s uspic
 s izz
 s ipping
 rul ed
 rub s
 rot ten
 roof s
 roll s
 ro le
 ro cked
 ro bbers
 river bank
 risk y
 rib bit
 result s
 rest oring
 res umed
 res isted
 repl acing
 rep airs
 remain ing
 rem embers
 refre shing
 rec ipe
 reapp eared
 read er
 re wards
 re united
 re newed
 re ly
 re joiced
 re feree
 re ason
 rat s
 rag s
 ra cer
 r uff
 r outines
 r ises
 r iddle
 quiet er
 quack s
 pur ch
 pupil s
 punish ment
 protect ion
 prom ising
 pro ved
 pro ceeded
 princess es
 price s
 pri zed
 pri ckly
 pre par
 pray ing
 postc ard
 pops icle
 po ster
 po se
 po s
 po llin
 po llen
 plum s
 play date
 plant ing
 plan ning
 pl unged
 pl ugged
 pl atform
 pl acing
 ph rase
 pet s
 perm itted
 perform ed
 per haps
 peel s
 pedal ing
 pec uliar
 peace fully
 pe ck
 pay s
 paw ed
 part ners
 pan icking
 pan cakes
 padd led
 pad dle
 pack ing
 p uck
 p ry
 p outed
 p ouch
 p oop
 p endant
 p ang
 p ace
 own s
 over come
 out sm
 out come
 ord ers
 or chard
 on ward
 obey ed
 oat meal
 o pposite
 not es
 nightmare s
 night s
 ni bbled
 nest s
 neighb ours
 need les
 necklace s
 nap s
 nap kins
 n u
 must n
 mug s
 moo ed
 mischievous ly
 mis ty
 mind ful
 mic rowave
 mess ages
 mesmer ised
 meow ing
 meet ings
 me als
 matter ed
 materi al
 master piece
 market place
 magic ian
 m ushy
 m ow
 m irac
 loop s
 load ing
 lo sing
 lo sers
 lo cal
 lift s
 lecture s
 leap ing
 lean s
 leak s
 lawy ers
 lands lide
 label s
 la zily
 l ength
 l arger
 kn ives
 kn it
 kiss ing
 key board
 k ings
 just ice
 joy ful
 join ing
 j aws
 iron ing
 introd uced
 int ently
 instr ument
 insist s
 insect s
 inse parable
 inc hes
 in jured
 in ched
 imagination s
 hum ming
 hor rible
 hor izon
 hook s
 holiday s
 his s
 herb s
 heel s
 head ache
 he ights
 he av
 he ater
 harm ing
 ha ted
 ha lves
 h undred
 h our
 h ooves
 h arness
 guess ing
 guard ian
 green s
 great er
 gre ed
 gre atest
 grand daughter
 gra zing
 gra cious
 gr umbling
 gr umbled
 gr adually
 good ness
 glim mer
 gl istening
 gl ided
 gigg les
 generous ly
 gem s
 garden ing
 gar bage
 g room
 g onna
 g lee
 fun n
 fulfill ed
 frown s
 freed om
 forgive s
 foot steps
 fo cused
 flutter ing
 flutter ed
 fle as
 flashlight s
 flap s
 fl u
 fl ipping
 fl ippers
 fl ipped
 fl ick
 fl as
 fire s
 fil th
 fe ast
 fast en
 farm ers
 fair ness
 fact s
 fa iled
 fa il
 f ried
 f antastic
 f ading
 f ade
 explore rs
 explor ation
 explain s
 exp ert
 exerc ising
 exam ining
 ex cept
 enter ing
 enjoy s
 enc ountered
 enc losure
 en emies
 embra ced
 elbow s
 ear rings
 eager ness
 e cho
 e arned
 dust pan
 dress ing
 draw n
 dra ins
 dr own
 dot s
 door way
 door bell
 doll ars
 do cuments
 disappoin tment
 direct ion
 din ners
 di vided
 deser ved
 desc ri
 demand s
 dem onstrated
 delay ed
 del ivery
 de vastated
 de eds
 de bris
 de b
 day dream
 dar ted
 dan cers
 da isies
 d u
 d ip
 d art
 d arlings
 d amp
 cur rent
 cro ak
 cream y
 cream s
 cre w
 cre ations
 cre aked
 cre ak
 crack s
 cr umpled
 cr uel
 cow boy
 country side
 cou ple
 cost ly
 correct ly
 cor ds
 cooper ate
 convin cing
 content ment
 cont ents
 congratul ations
 congratul ated
 concer n
 con sider
 con quered
 comple ting
 compl icated
 comp ared
 comm otion
 comm and
 comb ined
 com promise
 com mon
 collap sed
 cold er
 cobweb s
 co sy
 cloth s
 clean s
 cle ared
 class es
 cl ack
 cir cled
 cher ished
 check ing
 che ers
 chalk s
 chain s
 ch ip
 ch illy
 ch attered
 ch atted
 ch arity
 carp enter
 care s
 card inal
 car ries
 cap ture
 can s
 can ary
 camp fire
 calm ing
 ca utiously
 ca used
 c ustomer
 c oughed
 c otton
 c ottage
 c inema
 buy ing
 bus iness
 bur nt
 bug gy
 buck les
 bubb ly
 bu dge
 brus hing
 breath s
 br ide
 bow ing
 bo nd
 bo ast
 blink s
 bl ushed
 bl inking
 bl ade
 bit s
 bill s
 bicy cles
 bend ing
 ben ches
 belt s
 belong ings
 bell s
 behavi or
 beep ed
 beautif ully
 be ating
 be am
 be ads
 bat tle
 bat hed
 barrel s
 bar s
 ban ging
 ball et
 backpack s
 background s
 ba a
 b ank
 aw are
 attach ing
 at mosphere
 ast ronaut
 arg ument
 apron s
 appreci ation
 app l
 app etite
 any time
 anticip ation
 an kle
 an ger
 am ong
 allow ing
 all ergic
 al though
 aff ect
 admir ation
 add ress
 add ition
 ad ult
 act ive
 act ion
 abil ity
 a ward
 a is
 Z og
 Y uck
 Wor ld
 Wo lf
 Wh oever
 W E
 W ANT
 U ntil
 Tuesday s
 Tom ato
 Tim e
 Th ink
 T urkey
 T rust
 T rucky
 T oo
 T iger
 T ape
 T O
 T HAT
 St ore
 St even
 Sn eaky
 Sm oke
 Sh ould
 Sh all
 Sam antha
 S weet
 S usan
 S ure
 S oup
 S it
 S ean
 S ave
 S ausages
 R un
 R iding
 R eady
 R eading
 Pl aying
 P retty
 P oula
 P inching
 P ilot
 P aper
 Ow n
 O ther
 O live
 O h
 Music ian
 Me i
 M ore
 M ine
 M elon
 M an
 M aking
 M ake
 M AILBOX
 L ife
 Josh ua
 J ump
 J udge
 J ordan
 Inst antly
 I ce
 Ho oray
 H iding
 H and
 H a
 G iving
 Friend ship
 For giving
 F reeze
 F orever
 F armer
 E ating
 E AT
 Dave y
 D usty
 D O
 Clim bing
 Cle ar
 Car s
 C rocodile
 C rayons
 C hef
 C auli
 C arefully
 Bl ob
 Bl ack
 B ull
 B ulb
 B roccoli
 B oy
 B ooks
 B elieve
 B arney
 B all
 An other
 An imals
 Acorn s
 A utomobiles
 A unt
 A manda
 A lya
 A ccidents
 A BCs
 1 0
 - -
  ouches
  ill
  9
  4
â ,
â ¦
â¦ â
zz les
z iest
z ier
yth ag
ythag or
ythagor as
ym en
ym e
y ers
xt ure
x ed
well s
weet heart
w y
w ise
w ing
w elcome
vroom s
vers ation
ver ty
ver t
vert ising
ver ing
vent ed
vel s
ve ll
vell ous
v y
v ix
v ity
v ities
v ince
v as
v ary
v acy
v able
utch ing
ut ron
ut ed
ut ched
ut ation
ust ling
us ks
us es
urther more
urpr ised
urn ament
uri osity
ured ly
ur s
ur king
ur ity
ur f
urf ing
ur ance
ur able
up ed
unt ing
unt il
unt ed
un ned
un ken
un icate
un ge
un ches
un ate
ump h
umph ant
umb les
um bers
ulif lower
ulf ed
ul va
ul pr
ulpr it
ul ks
ul ip
ul ge
ul ation
ul a
ug e
uff s
uff le
udd ies
ud ing
ud ges
ud er
uct s
uc umber
uc ted
uc lid
uc le
ucle us
u ise
u is
uis her
u ing
u ild
turn ed
ting uisher
the med
th at
ter us
ter s
ter rup
terrup ted
ter n
tern s
t ter
t oys
t ouch
t led
t here
t ell
tell ing
t ear
t aker
t ake
t able
st upid
st orm
st ones
st ir
st inctively
st ick
st ein
st and
stand s
st aking
staking ly
st aff
st ac
stac le
ss omed
sp apers
sp ace
shadow ing
shadow ed
sh m
shm allow
shmallow s
sh ar
shar p
sh ake
sent ly
se y
se vered
se ar
sear ch
s urprise
s uring
s ue
s sey
s pect
s our
s orry
s led
s lap
s k
sk ating
s he
s ery
s ence
s en
s ary
s a
sa o
sao ged
rot um
rom os
romos ome
rod uce
ro ll
ro j
roj an
rm chair
riend ly
ri ous
ri ents
ri b
rib ute
ret h
reth ra
ret e
ress ions
reet ings
reen y
ream s
re spect
re sently
re quest
re m
rem ely
re ated
ray s
rap her
rag r
ragr ant
rag es
ract s
ra pt
rapt ions
ra pped
ra in
ra ging
ra c
rac ted
r ustrated
r uction
r or
r op
r ont
r imp
r ime
r id
rid or
r ates
r ate
rate fully
r ane
qu ired
qu ins
put er
pt op
pt ing
pt ic
ptic al
print s
pr inkle
pp ling
pp les
pow ers
ple xed
ple ased
pl ing
pl er
ph ones
per ately
per ated
pec ting
pa ssed
pa ired
p op
p itched
p ins
p hew
p ed
p air
owl ed
ow y
ow wy
ow sed
ous ins
ous and
ound ed
ould ing
ouch ing
ou raged
ou rage
ou ched
ot le
ost ate
ort s
ort h
orse ful
orm ation
orge ous
ore shadowing
ord inary
or king
or is
or ious
or iginal
or get
orget table
or gan
organ ized
or ched
op ted
oot ball
oop ed
oon s
oom iest
ook y
oof y
ood ling
ood les
ood le
oo zy
oo zing
oo o
oo king
oo ked
on us
on o
on ished
on ies
omp et
ompet ition
omet s
old ing
old ed
ol ite
ol icking
og ress
og rapher
og gy
og a
o x
o ver
o ssomed
o oo
o hed
o ff
o em
oem s
o ard
ny time
nt roduce
nic us
ng el
ness ed
nel s
nder s
nd ition
nc ouraged
n ormal
n on
n iz
n ings
n ied
n ext
n ec
nec ked
mon y
ming ly
ment ion
ma ids
m unk
m oving
m mediately
m ine
m ery
m art
m ag
mag ine
ly ing
low ing
long er
ll ent
less ly
lend id
le st
le en
le ch
le asing
land s
l ving
l ts
l ster
l or
l oin
l ob
l imits
l ike
l ife
l ers
l en
key s
k ipping
jest y
jest ic
j elly
j ar
izz iness
izz ed
iver sary
iv ore
iv id
iv ate
itt s
itt ies
itt e
ither ed
ited ly
itc ase
it oris
it nessed
it ive
it ic
itic ian
itician s
it ated
ist otle
isp uted
ish ments
ise y
is m
is ible
is en
irr uped
irr itated
ir ted
ir ls
ir ling
ir cles
ink ly
ink ets
ink er
ing ly
ing ling
ing led
ing er
inger ly
ing ed
ind ulge
ind ness
ind ered
inct s
in stein
in nied
in itely
in crease
in cl
incl ude
imp ering
imp ed
imed es
im s
im mon
im mery
im ent
im ens
imens ion
im b
ilt s
ill ed
ill ary
ile o
il st
il i
ili ad
ight ning
ight ly
ight ing
ig hing
ig ger
ig ers
ig eon
igeon s
if ted
if icate
id ded
id ance
ic ation
ic ally
ib niz
ib ly
i xture
i us
i ara
i ance
here r
her s
he ets
ha ved
h unting
h opped
h arsh
h adow
gn ore
gg ings
get ting
gen c
genc ies
ged y
ge sting
ge m
g ood
g ive
g as
g ar
g age
fra ined
fort une
fort unate
fere nd
fa ct
fact ion
f ull
f riendly
f ree
f ly
f lowing
f ive
f ired
f illed
f ield
f et
fet ime
f ar
f all
ew spapers
etch up
et work
et ched
et ah
etah s
est ured
est s
est ine
es pect
es ides
ert ificate
erm s
erf ume
erf ect
er vix
er ves
er nicus
er nels
er maids
er k
er ie
er gency
ep ed
ep e
epe at
ention ally
ent re
end er
end ed
en n
enn a
enna e
en ing
em ories
em ergency
em ain
ell ishments
elax ing
el ve
el uctantly
el ing
el ids
el ace
eff ect
effect s
ee king
ed ly
ed ication
ect ion
ec hed
ec c
ecc a
eb ecca
e zed
e ves
e ow
m eow
e ither
e ft
e eling
e ch
e arned
dy ssey
dd ers
d ucts
d own
d est
d ates
cut s
ctor s
ct um
ct ron
ct ions
cre as
com puter
com passed
com ing
com b
co ver
co ld
co at
cloud s
cl uded
cl ap
ck y
ck s
ck led
chan ted
chan ged
ch ug
ch imedes
ch ildren
ch ange
ch airs
cess ories
cent rated
ce llent
c ule
c uffs
c rime
c rete
c red
c oon
c ited
c issors
c ier
c hers
c at
c ar
c ame
br ing
br idge
bo at
be haved
be am
ball s
b uild
b solutely
b ly
b ish
b ber
b at
bat he
azz ling
az y
az e
ax e
aw yers
aw ing
aut iously
aut iful
atter s
atter ing
att ractive
att ended
att ach
at uredly
at ors
at itude
at herer
at hed
ast ly
ast ing
ast a
as ured
as ant
art s
art led
art es
art broken
arn ing
are wells
are ful
ard less
ar ted
app iness
ap le
ant um
ant s
ant ically
ank y
ank s
ang rier
ang les
and les
ance s
an terns
an ner
an ion
an ced
amp ion
amp ered
amb ling
am mer
am ine
alley s
all owed
all ic
alk s
al y
al th
al izing
al ity
al ities
al ileo
ak ers
ain t
age ways
ag ue
ag ina
ag er
ad ness
ad ling
ad led
ack le
ace s
ac on
ac les
ab by
ab bed
a way
a uliflower
a uge
a os
a jesty
a ive
a isey
a hed
a fe
Z ips
Z igzag
Z iggy
Y oga
Y esterday
Y ears
Y awn
With out
We e
W orking
W ild
W hew
W et
W ednesday
W ear
W ally
W HAT
W A
WA R
WAR N
WARN ING
V alleys
U p
To dd
The ater
The E
TheE nd
Th omas
TH Y
T winkle
T urtle
T una
T rucky
T ree
T oy
T ippy
T hings
T aking
T able
Sun shine
Su zy
Su zie
St upid
St retching
St ore
St itch
St ir
St ill
St even
St ella
St ealing
St artled
St and
St aff
Sque eze
Sque aky
Sp ark
Some one
So ft
Sn owy
Sn ake
Sh rink
Sh rimp
Sh ow
Sh oo
Sh iny
Sh hh
Sh are
Sh all
S weetheart
S urrender
S urprised
S prinkle
S pring
S oy
S owwy
S oup
S mart
S lap
S ize
S ix
S ince
S ienna
S erve
S end
S C
SC RE
SCRE E
SCREE C
SCREEC H
Rob by
Ro ll
Re alizing
R rr
Rrr rr
Rrrrr rr
R ise
R ight
R ia
R hythm
R emain
R elax
R ed
R ay
Quick ly
Prin ce
Pop corn
Pe ople
P romise
P retty
P resently
P igeons
P iano
P erfect
P ercy
P aws
P atch
P ark
P aper
P apa
P O
PO P
Oh hh
OK I
OKI E
OKIE S
O ysters
O ther
O oh
O U
O OKIES
Near by
N utty
N obody
N ine
N ice
N ewspapers
N ever
N avy
N O
N D
N A
Moral s
Miss ile
Mar riage
M ouse
M other
M oppy
M o
M ix
M ind
M ina
M ath
M atch
M arry
M ail
Lila h
Let s
L ung
L uke
L ooking
L onghead
L ion
L inda
L iam
L enny
L eft
L awyers
L ate
L THY
Ke ith
K iss
K ing
K ick
K atelyn
K anga
Jump ing
Jo jo
Jess ica
J umpy
J s
J oin
J illy
J amie
It s
Is n
In stinctively
In crease
I ntroduce
I mmediately
I ce
I TH
Ho pper
